! 1
" 1
# 1
$ 1
% 1
& 1
' 1
( 1
) 1
* 1
+ 1
, 1
- 1
. 1
/ 1
0 1
1 1
2 1
3 1
4 1
5 1
6 1
7 1
8 1
9 1
: 1
; 1
< 1
= 1
> 1
? 1
@ 1
A 1
B 1
C 1
D 1
E 1
F 1
G 1
H 1
I 1
J 1
K 1
L 1
M 1
N 1
O 1
P 1
Q 1
R 1
S 1
T 1
U 1
V 1
W 1
X 1
Y 1
Z 1
[ 1
\ 1
] 1
^ 1
_ 1
` 1
a 1
b 1
c 1
d 1
e 1
f 1
g 1
h 1
i 1
j 1
k 1
l 1
m 1
n 1
o 1
p 1
q 1
r 1
s 1
t 1
u 1
v 1
w 1
x 1
y 1
z 1
{ 1
| 1
} 1
~ 1
¡ 1
¢ 1
£ 1
¤ 1
¥ 1
¦ 1
§ 1
¨ 1
© 1
ª 1
« 1
¬ 1
® 1
¯ 1
° 1
± 1
² 1
³ 1
´ 1
µ 1
¶ 1
· 1
¸ 1
¹ 1
º 1
» 1
¼ 1
½ 1
¾ 1
¿ 1
À 1
Á 1
Â 1
Ã 1
Ä 1
Å 1
Æ 1
Ç 1
È 1
É 1
Ê 1
Ë 1
Ì 1
Í 1
Î 1
Ï 1
Ð 1
Ñ 1
Ò 1
Ó 1
Ô 1
Õ 1
Ö 1
× 1
Ø 1
Ù 1
Ú 1
Û 1
Ü 1
Ý 1
Þ 1
ß 1
à 1
á 1
â 1
ã 1
ä 1
å 1
æ 1
ç 1
è 1
é 1
ê 1
ë 1
ì 1
í 1
î 1
ï 1
ð 1
ñ 1
ò 1
ó 1
ô 1
õ 1
ö 1
÷ 1
ø 1
ù 1
ú 1
û 1
ü 1
ý 1
þ 1
ÿ 1
Ā 1
ā 1
Ă 1
ă 1
Ą 1
ą 1
Ć 1
ć 1
Ĉ 1
ĉ 1
Ċ 1
ċ 1
Č 1
č 1
Ď 1
ď 1
Đ 1
đ 1
Ē 1
ē 1
Ĕ 1
ĕ 1
Ė 1
ė 1
Ę 1
ę 1
Ě 1
ě 1
Ĝ 1
ĝ 1
Ğ 1
ğ 1
Ġ 1
ġ 1
Ģ 1
ģ 1
Ĥ 1
ĥ 1
Ħ 1
ħ 1
Ĩ 1
ĩ 1
Ī 1
ī 1
Ĭ 1
ĭ 1
Į 1
į 1
İ 1
ı 1
Ĳ 1
ĳ 1
Ĵ 1
ĵ 1
Ķ 1
ķ 1
ĸ 1
Ĺ 1
ĺ 1
Ļ 1
ļ 1
Ľ 1
ľ 1
Ŀ 1
ŀ 1
Ł 1
ł 1
Ń 1
!</w> 1
"</w> 1
#</w> 1
$</w> 1
%</w> 1
&</w> 1
'</w> 1
(</w> 1
)</w> 1
*</w> 1
+</w> 1
,</w> 1
-</w> 1
.</w> 1
/</w> 1
0</w> 1
1</w> 1
2</w> 1
3</w> 1
4</w> 1
5</w> 1
6</w> 1
7</w> 1
8</w> 1
9</w> 1
:</w> 1
;</w> 1
<</w> 1
=</w> 1
></w> 1
?</w> 1
@</w> 1
A</w> 1
B</w> 1
C</w> 1
D</w> 1
E</w> 1
F</w> 1
G</w> 1
H</w> 1
I</w> 1
J</w> 1
K</w> 1
L</w> 1
M</w> 1
N</w> 1
O</w> 1
P</w> 1
Q</w> 1
R</w> 1
S</w> 1
T</w> 1
U</w> 1
V</w> 1
W</w> 1
X</w> 1
Y</w> 1
Z</w> 1
[</w> 1
\</w> 1
]</w> 1
^</w> 1
_</w> 1
`</w> 1
a</w> 1
b</w> 1
c</w> 1
d</w> 1
e</w> 1
f</w> 1
g</w> 1
h</w> 1
i</w> 1
j</w> 1
k</w> 1
l</w> 1
m</w> 1
n</w> 1
o</w> 1
p</w> 1
q</w> 1
r</w> 1
s</w> 1
t</w> 1
u</w> 1
v</w> 1
w</w> 1
x</w> 1
y</w> 1
z</w> 1
{</w> 1
|</w> 1
}</w> 1
~</w> 1
¡</w> 1
¢</w> 1
£</w> 1
¤</w> 1
¥</w> 1
¦</w> 1
§</w> 1
¨</w> 1
©</w> 1
ª</w> 1
«</w> 1
¬</w> 1
®</w> 1
¯</w> 1
°</w> 1
±</w> 1
²</w> 1
³</w> 1
´</w> 1
µ</w> 1
¶</w> 1
·</w> 1
¸</w> 1
¹</w> 1
º</w> 1
»</w> 1
¼</w> 1
½</w> 1
¾</w> 1
¿</w> 1
À</w> 1
Á</w> 1
Â</w> 1
Ã</w> 1
Ä</w> 1
Å</w> 1
Æ</w> 1
Ç</w> 1
È</w> 1
É</w> 1
Ê</w> 1
Ë</w> 1
Ì</w> 1
Í</w> 1
Î</w> 1
Ï</w> 1
Ð</w> 1
Ñ</w> 1
Ò</w> 1
Ó</w> 1
Ô</w> 1
Õ</w> 1
Ö</w> 1
×</w> 1
Ø</w> 1
Ù</w> 1
Ú</w> 1
Û</w> 1
Ü</w> 1
Ý</w> 1
Þ</w> 1
ß</w> 1
à</w> 1
á</w> 1
â</w> 1
ã</w> 1
ä</w> 1
å</w> 1
æ</w> 1
ç</w> 1
è</w> 1
é</w> 1
ê</w> 1
ë</w> 1
ì</w> 1
í</w> 1
î</w> 1
ï</w> 1
ð</w> 1
ñ</w> 1
ò</w> 1
ó</w> 1
ô</w> 1
õ</w> 1
ö</w> 1
÷</w> 1
ø</w> 1
ù</w> 1
ú</w> 1
û</w> 1
ü</w> 1
ý</w> 1
þ</w> 1
ÿ</w> 1
Ā</w> 1
ā</w> 1
Ă</w> 1
ă</w> 1
Ą</w> 1
ą</w> 1
Ć</w> 1
ć</w> 1
Ĉ</w> 1
ĉ</w> 1
Ċ</w> 1
ċ</w> 1
Č</w> 1
č</w> 1
Ď</w> 1
ď</w> 1
Đ</w> 1
đ</w> 1
Ē</w> 1
ē</w> 1
Ĕ</w> 1
ĕ</w> 1
Ė</w> 1
ė</w> 1
Ę</w> 1
ę</w> 1
Ě</w> 1
ě</w> 1
Ĝ</w> 1
ĝ</w> 1
Ğ</w> 1
ğ</w> 1
Ġ</w> 1
ġ</w> 1
Ģ</w> 1
ģ</w> 1
Ĥ</w> 1
ĥ</w> 1
Ħ</w> 1
ħ</w> 1
Ĩ</w> 1
ĩ</w> 1
Ī</w> 1
ī</w> 1
Ĭ</w> 1
ĭ</w> 1
Į</w> 1
į</w> 1
İ</w> 1
ı</w> 1
Ĳ</w> 1
ĳ</w> 1
Ĵ</w> 1
ĵ</w> 1
Ķ</w> 1
ķ</w> 1
ĸ</w> 1
Ĺ</w> 1
ĺ</w> 1
Ļ</w> 1
ļ</w> 1
Ľ</w> 1
ľ</w> 1
Ŀ</w> 1
ŀ</w> 1
Ł</w> 1
ł</w> 1
Ń</w> 1
in 1
th 1
an 1
re 1
ar 1
er 1
the</w> 1
ing</w> 1
ou 1
on 1
st 1
or 1
en 1
on</w> 1
al 1
at 1
er</w> 1
it 1
in</w> 1
to</w> 1
ro 1
is</w> 1
le 1
ic 1
at</w> 1
and</w> 1
ed</w> 1
of</w> 1
ch 1
or</w> 1
es</w> 1
il 1
el 1
st</w> 1
ac 1
om 1
am 1
lo 1
an</w> 1
ay</w> 1
sh 1
ri 1
li 1
ti 1
for</w> 1
ne 1
ðŁ 1
ra 1
ha 1
de 1
ol 1
ve</w> 1
si 1
ur 1
al</w> 1
se 1
's</w> 1
un 1
di 1
be 1
la 1
wh 1
oo 1
day</w> 1
en</w> 1
ma 1
no 1
le</w> 1
to 1
our</w> 1
ir 1
gh 1
wit 1
it</w> 1
yo 1
as 1
sp 1
this</w> 1
ts</w> 1
ati 1
you</w> 1
with</w> 1
ad 1
is 1
ab 1
ly</w> 1
we 1
the 1
te 1
as</w> 1
ag 1
vi 1
pp 1
su 1
ho 1
my</w> 1
.. 1
bu 1
com 1
se</w> 1
ers</w> 1
me 1
me</w> 1
all</w> 1
con 1
mo 1
ke</w> 1
ge 1
out</w> 1
ent</w> 1
co 1
fe 1
ver 1
ar</w> 1
fro 1
au 1
po 1
ce</w> 1
ght</w> 1
are</w> 1
ss</w> 1
from</w> 1
ch</w> 1
tr 1
oun 1
one</w> 1
by</w> 1
do 1
th</w> 1
wor 1
ere</w> 1
ke 1
pro 1
for 1
ds</w> 1
bo 1
ta 1
we</w> 1
go 1
he 1
ter</w> 1
ing 1
de</w> 1
be</w> 1
ation</w> 1
mor 1
ay 1
ex 1
ill</w> 1
pe 1
ks</w> 1
sc 1
lu 1
fu 1
qu 1
ver</w> 1
ðŁĺ 1
ju 1
mu 1
ate</w> 1
and 1
ve 1
king</w> 1
mar 1
op 1
hi 1
...</w> 1
pre 1
ad</w> 1
ru 1
that</w> 1
jo 1
of 1
ce 1
new</w> 1
am</w> 1
ap 1
gre 1
ss 1
du 1
now</w> 1
ye 1
ting</w> 1
your</w> 1
ity</w> 1
ni 1
ci 1
par 1
gu 1
fi 1
af 1
per 1
ter 1
up</w> 1
so</w> 1
gi 1
ons</w> 1
gr 1
ge</w> 1
br 1
pl 1
't</w> 1
mi 1
ine</w> 1
wee 1
bi 1
us</w> 1
sho 1
have</w> 1
today</w> 1
av 1
man 1
ent 1
ack</w> 1
ure</w> 1
our 1
âĢ 1
cu 1
ld</w> 1
loo 1
im 1
ice</w> 1
som 1
fin 1
red</w> 1
ren 1
ood</w> 1
was</w> 1
tion</w> 1
pi 1
ir</w> 1
ther</w> 1
ty</w> 1
ph 1
ard</w> 1
ec 1
!!</w> 1
mon 1
more</w> 1
will</w> 1
tra 1
can</w> 1
col 1
pu 1
te</w> 1
wn</w> 1
mb 1
so 1
iti 1
just</w> 1
ning</w> 1
here</w> 1
tu 1
pa 1
pr 1
but</w> 1
what</w> 1
ally</w> 1
fir 1
min 1
ca 1
ant</w> 1
sa 1
ted</w> 1
ev 1
ment</w> 1
fa 1
get</w> 1
ame</w> 1
about</w> 1
gra 1
not</w> 1
happ 1
ays</w> 1
man</w> 1
his</w> 1
time</w> 1
like</w> 1
gh</w> 1
has</w> 1
than 1
love</w> 1
art</w> 1
ste 1
ding</w> 1
he</w> 1
cre 1
ws</w> 1
wat 1
der</w> 1
ite</w> 1
ser 1
ace</w> 1
age</w> 1
end</w> 1
str 1
aw 1
stor 1
re</w> 1
car 1
ell</w> 1
all 1
ps</w> 1
fri 1
pho 1
por 1
do</w> 1
ak 1
wi 1
fre 1
who</w> 1
shi 1
boo 1
son</w> 1
ell 1
when</w> 1
ill 1
how</w> 1
great</w> 1
win 1
el</w> 1
bl 1
ssi 1
ali 1
some</w> 1
ðŁĴ 1
ton 1
der 1
les</w> 1
pla 1
ï¸ 1
ed 1
sch 1
hu 1
ong</w> 1
don</w> 1
ki 1
sh</w> 1
ann 1
cor 1
..</w> 1
ound</w> 1
az 1
ine 1
ary</w> 1
ful</w> 1
stu 1
ould</w> 1
sti 1
go</w> 1
see</w> 1
able</w> 1
ars</w> 1
ll</w> 1
mis 1
ber 1
ck</w> 1
wa 1
ents</w> 1
no</w> 1
sig 1
fe</w> 1
first</w> 1
et</w> 1
spe 1
ack 1
if</w> 1
ous</w> 1
'm</w> 1
ster</w> 1
app 1
ang 1
ance</w> 1
ans</w> 1
good</w> 1
bre 1
ever 1
they</w> 1
tic 1
come</w> 1
off 1
back</w> 1
ase</w> 1
ings</w> 1
old</w> 1
ight</w> 1
fo 1
her</w> 1
happy</w> 1
pic 1
its</w> 1
ving</w> 1
us 1
mat 1
hom 1
dy</w> 1
em 1
sk 1
ying</w> 1
their</w> 1
led</w> 1
ry</w> 1
ul 1
har 1
ck 1
ton</w> 1
onal</w> 1
hel 1
ric 1
bir 1
vie 1
way</w> 1
tri 1
da 1
ple 1
bro 1
sto 1
ool</w> 1
night</w> 1
tru 1
ba 1
read 1
res</w> 1
year</w> 1
fr 1
tor 1
als</w> 1
coun 1
cla 1
ture</w> 1
vel 1
ated</w> 1
lec 1
end 1
thing</w> 1
vo 1
ici 1
best</w> 1
can 1
work</w> 1
last</w> 1
after</w> 1
ence</w> 1
pri 1
pe</w> 1
es 1
il</w> 1
âĢ¦</w> 1
dre 1
ys</w> 1
over</w> 1
ies</w> 1
ðŁĳ 1
comm 1
tw 1
ink</w> 1
sun 1
cl 1
life</w> 1
tt 1
ach 1
land</w> 1
sy 1
tre 1
tal 1
pol 1
sm 1
duc 1
sal 1
ft</w> 1
're</w> 1
che 1
war 1
tur 1
ations</w> 1
ach</w> 1
ms</w> 1
ile</w> 1
pm</w> 1
ough</w> 1
ate 1
star 1
week</w> 1
!!!</w> 1
clu 1
there</w> 1
ner</w> 1
tom 1
sel 1
ï¸ı</w> 1
world</w> 1
ves</w> 1
cam 1
got</w> 1
inter 1
off</w> 1
um</w> 1
tonight</w> 1
other</w> 1
hou 1
look</w> 1
je 1
id</w> 1
sion</w> 1
beau 1
att 1
eli 1
ort</w> 1
rec 1
ff 1
ster 1
supp 1
gen 1
been</w> 1
ily</w> 1
team</w> 1
mm 1
ic</w> 1
peop 1
itt 1
ats</w> 1
only</w> 1
mber</w> 1
eng 1
bri 1
mp 1
know</w> 1
bur 1
bar 1
ins</w> 1
low</w> 1
she</w> 1
row</w> 1
âĿ 1
tro 1
people</w> 1
via</w> 1
low 1
aga 1
bet 1
xt</w> 1
fac 1
char 1
ear 1
wal 1
sen 1
fam 1
ble</w> 1
nati 1
ish</w> 1
nor 1
game</w> 1
live</w> 1
sco 1
ley</w> 1
don 1
ick</w> 1
ball</w> 1
very</w> 1
these</w> 1
pan 1
ia</w> 1
ating</w> 1
cr 1
are 1
gir 1
make</w> 1
stre 1
show</w> 1
."</w> 1
fl 1
up 1
dr 1
thanks</w> 1
illi 1
wom 1
sts</w> 1
ig 1
sur 1
every 1
cur 1
view</w> 1
let</w> 1
into</w> 1
most</w> 1
na 1
indi 1
gar 1
had</w> 1
sou 1
ved</w> 1
ant 1
ition</w> 1
made</w> 1
fol 1
uni 1
ited</w> 1
ðŁı 1
ical</w> 1
thr 1
ready</w> 1
chec 1
dra 1
kes</w> 1
book</w> 1
ep</w> 1
sic</w> 1
morning</w> 1
news</w> 1
cau 1
ct</w> 1
well</w> 1
anc 1
photo</w> 1
than</w> 1
ors</w> 1
birth 1
gg 1
out 1
next</w> 1
some 1
ening</w> 1
story</w> 1
chri 1
down</w> 1
home</w> 1
ffe 1
free</w> 1
da</w> 1
bor 1
fil 1
cial</w> 1
thank</w> 1
side</w> 1
lear 1
que 1
line</w> 1
ten 1
ates</w> 1
years</w> 1
my 1
photo 1
beauti 1
right</w> 1
nu 1
form 1
ship</w> 1
ban 1
ther 1
days</w> 1
gam 1
ason</w> 1
gy</w> 1
ðŁİ 1
birthday</w> 1
set</w> 1
ick 1
et 1
still</w> 1
coming</w> 1
take</w> 1
ðŁĩ 1
bb 1
sol 1
son 1
den 1
ep 1
music</w> 1
them</w> 1
den</w> 1
why</w> 1
foo 1
cra 1
amaz 1
wn 1
hol 1
tting</w> 1
wr 1
ue</w> 1
mag 1
cro 1
lan 1
clo 1
bra 1
ak</w> 1
sing</w> 1
cal 1
read</w> 1
've</w> 1
joh 1
bab 1
dri 1
blo 1
big</w> 1
eric 1
int</w> 1
tor</w> 1
try</w> 1
la</w> 1
leg 1
house</w> 1
mic 1
val 1
beautiful</w> 1
litt 1
check</w> 1
new 1
vers 1
sw 1
ari 1
play 1
her 1
âĢĵ</w> 1
win</w> 1
ma</w> 1
congr 1
school</w> 1
fun 1
.@</w> 1
heal 1
ich</w> 1
del 1
where</w> 1
lon 1
ket</w> 1
two</w> 1
much</w> 1
watch</w> 1
ven 1
ded</w> 1
ast</w> 1
ked</w> 1
bas 1
going</w> 1
mp</w> 1
ever</w> 1
ways</w> 1
roo 1
desig 1
ly 1
sed</w> 1
top</w> 1
lin 1
chan 1
too</w> 1
iting</w> 1
dent</w> 1
ghts</w> 1
ty 1
spo 1
need</w> 1
blu 1
inst 1
being</w> 1
âĿ¤ 1
wel 1
ls</w> 1
him</w> 1
may</w> 1
sting</w> 1
na</w> 1
ely</w> 1
little</w> 1
ga 1
nat 1
tomor 1
mc 1
hon 1
want</w> 1
air 1
pic</w> 1
americ 1
per</w> 1
less</w> 1
week 1
vel</w> 1
ah</w> 1
cap 1
cham 1
ger 1
tim 1
tomorrow</w> 1
ness</w> 1
state</w> 1
hal 1
serv 1
ze</w> 1
os</w> 1
pat 1
vis 1
exc 1
sin 1
ff</w> 1
city</w> 1
cen 1
any 1
bel 1
summ 1
tin 1
would</w> 1
looking</w> 1
ko 1
cele 1
family</w> 1
mer 1
pow 1
help</w> 1
bus 1
co</w> 1
cle 1
self</w> 1
ens</w> 1
ics</w> 1
tho 1
ani 1
cho 1
lead 1
bs</w> 1
twee 1
think</w> 1
fore</w> 1
chil 1
vide 1
did</w> 1
ale</w> 1
chi 1
vil 1
ends</w> 1
wing</w> 1
pas 1
'll</w> 1
vol 1
sa</w> 1
gs</w> 1
many</w> 1
jec 1
before</w> 1
graph 1
ny</w> 1
uring</w> 1
wil 1
dd 1
buil 1
fav 1
sted</w> 1
tran 1
ling</w> 1
oud</w> 1
dge</w> 1
fiel 1
national</w> 1
sta 1
cer 1
were</w> 1
ina</w> 1
season</w> 1
cou 1
ned</w> 1
amazing</w> 1
tions</w> 1
celebr 1
ns</w> 1
ath 1
head</w> 1
sday</w> 1
dar 1
loc 1
vin 1
another</w> 1
goo 1
sat 1
ny 1
join</w> 1
pres 1
ses</w> 1
sing 1
ana</w> 1
ining</w> 1
....</w> 1
cour 1
ï¸ı 1
act</w> 1
cause</w> 1
light</w> 1
ams</w> 1
ta</w> 1
bal 1
fc</w> 1
high</w> 1
offici 1
tt</w> 1
christ 1
dic 1
day 1
ral</w> 1
hor 1
:)</w> 1
visi 1
nam 1
ob 1
mas</w> 1
ght 1
really</w> 1
tun 1
find</w> 1
through</w> 1
port</w> 1
ut 1
tive</w> 1
sty 1
ne</w> 1
ore</w> 1
ðŁĺĤ 1
support</w> 1
never</w> 1
even</w> 1
ðŁĶ 1
ha</w> 1
ya</w> 1
ld 1
uk</w> 1
ran 1
jam 1
with 1
medi 1
des</w> 1
ney</w> 1
ching</w> 1
ale 1
hy 1
kin 1
!! 1
dy 1
place</w> 1
also</w> 1
ble 1
which</w> 1
black</w> 1
bli 1
say</w> 1
park</w> 1
play</w> 1
ire</w> 1
video</w> 1
weekend</w> 1
ail 1
key</w> 1
pt</w> 1
ward</w> 1
friday</w> 1
din 1
iness</w> 1
gro 1
ben 1
always</w> 1
tball</w> 1
ago</w> 1
mil 1
cy 1
produc 1
disc 1
under 1
please</w> 1
spor 1
full</w> 1
ey</w> 1
ðŁĻ 1
ise</w> 1
ities</w> 1
cat 1
kno 1
use</w> 1
fore 1
ker</w> 1
art 1
high 1
open</w> 1
san 1
ef 1
ours</w> 1
shed</w> 1
stri 1
dro 1
again</w> 1
im</w> 1
ðŁĵ 1
enjo 1
fun</w> 1
getting</w> 1
pen 1
ger</w> 1
cli 1
any</w> 1
every</w> 1
eu 1
women</w> 1
âľ 1
est</w> 1
could</w> 1
ry 1
"@</w> 1
thou 1
sha 1
commun 1
ber</w> 1
dents</w> 1
dis 1
while</w> 1
away</w> 1
dio</w> 1
ham 1
gla 1
date</w> 1
ka</w> 1
miss</w> 1
unch</w> 1
won 1
inf 1
room</w> 1
ga</w> 1
real</w> 1
exper 1
direc 1
should</w> 1
spr 1
gol 1
long</w> 1
better</w> 1
ori 1
ey 1
ience</w> 1
ils</w> 1
zz 1
han 1
found</w> 1
vs</w> 1
âĻ 1
post</w> 1
tic</w> 1
part</w> 1
men 1
rence</w> 1
cess</w> 1
vic 1
sil 1
shop</w> 1
ðŁĺĤ</w> 1
food</w> 1
val</w> 1
stic</w> 1
you 1
says</w> 1
elec 1
star</w> 1
oc 1
land 1
id 1
ction</w> 1
field</w> 1
sof 1
start</w> 1
water</w> 1
friends</w> 1
ones</w> 1
ðŁĮ 1
fla 1
far 1
white</w> 1
party</w> 1
inst</w> 1
grou 1
tv</w> 1
everyone</w> 1
ment 1
ja 1
cha 1
prin 1
ants</w> 1
during</w> 1
lat 1
lar 1
west</w> 1
then</w> 1
ka 1
youn 1
insp 1
inte 1
ween</w> 1
visit</w> 1
against</w> 1
rele 1
head 1
ces</w> 1
town</w> 1
looks</w> 1
thre 1
regi 1
rent</w> 1
projec 1
girl</w> 1
sear 1
wo 1
mom 1
car</w> 1
hun 1
publi 1
di</w> 1
ple</w> 1
call</w> 1
cri 1
um 1
ford</w> 1
perfe 1
friend</w> 1
hard</w> 1
ssion</w> 1
test</w> 1
playing</w> 1
around</w> 1
because</w> 1
kets</w> 1
meet</w> 1
satur 1
arti 1
work 1
jun 1
ven</w> 1
run 1
member</w> 1
port 1
super 1
twit 1
sam 1
els</w> 1
tly</w> 1
adv 1
ative</w> 1
ath</w> 1
sure</w> 1
avail 1
lar</w> 1
squ 1
ards</w> 1
event</w> 1
men</w> 1
ll 1
over 1
logy</w> 1
ital</w> 1
times</w> 1
mal 1
back 1
coo 1
making</w> 1
stru 1
âģ 1
itu 1
shar 1
gan</w> 1
cas 1
sn 1
summer</w> 1
picture</w> 1
fan 1
hin 1
christmas</w> 1
cy</w> 1
proud</w> 1
champi 1
design</w> 1
pping</w> 1
hope</w> 1
ca</w> 1
available</w> 1
may 1
wed 1
photograph 1
special</w> 1
sale</w> 1
stop</w> 1
ery</w> 1
awe 1
ality</w> 1
history</w> 1
ama</w> 1
presi 1
bru 1
working</w> 1
done</w> 1
dr</w> 1
ken</w> 1
feat 1
wood</w> 1
atest</w> 1
sunday</w> 1
movi 1
vely</w> 1
sle 1
face</w> 1
spec 1
students</w> 1
by 1
ham</w> 1
spon 1
business</w> 1
dat 1
ie</w> 1
ip 1
soci 1
glo 1
hand 1
recor 1
rs</w> 1
mee 1
keep</w> 1
pur 1
health</w> 1
she 1
comple 1
god</w> 1
davi 1
collec 1
list 1
ra</w> 1
club</w> 1
ters</w> 1
inclu 1
things</w> 1
plan 1
âĺ 1
john</w> 1
shing</w> 1
atul 1
soon</w> 1
blue</w> 1
gor 1
saturday</w> 1
won</w> 1
congratul 1
see 1
âĿ¤ï¸ı</w> 1
those</w> 1
ðŁĺį</w> 1
final</w> 1
dou 1
ith</w> 1
own</w> 1
road</w> 1
tour</w> 1
ast 1
india</w> 1
til</w> 1
nd</w> 1
fer 1
favor 1
sul 1
learn</w> 1
fire</w> 1
just 1
group</w> 1
ah 1
rac 1
body</w> 1
ur</w> 1
care</w> 1
à¸ 1
plo 1
oh</w> 1
pos 1
give</w> 1
tech 1
sub 1
cent 1
ering</w> 1
ym 1
ility</w> 1
fic 1
london</w> 1
vir 1
guys</w> 1
ba</w> 1
ðŁ¤ 1
baby</w> 1
scre 1
ðŁĺį 1
trump</w> 1
under</w> 1
change</w> 1
ian</w> 1
colle 1
sses</w> 1
ler</w> 1
ssed</w> 1
nice</w> 1
announ 1
power</w> 1
sar 1
aking</w> 1
mini 1
sli 1
swee 1
kar 1
ful 1
cru 1
action</w> 1
ather</w> 1
).</w> 1
stand 1
devel 1
aa 1
gan 1
left</w> 1
lol</w> 1
rel 1
trans 1
ments</w> 1
int 1
ef</w> 1
manag 1
dig 1
gener 1
down 1
pau 1
tiv 1
ku 1
thur 1
ken 1
ston</w> 1
fans</w> 1
talk</w> 1
tweet</w> 1
too 1
style</w> 1
prote 1
secon 1
fron 1
awesome</w> 1
gl 1
pal 1
net 1
sor 1
lau 1
gon 1
since</w> 1
tty</w> 1
series</w> 1
memor 1
beli 1
film</w> 1
did 1
dies</w> 1
ot 1
congratulations</w> 1
pra 1
eve</w> 1
woo 1
official</w> 1
suc 1
incre 1
bon 1
part 1
pped</w> 1
class</w> 1
sive</w> 1
boy</w> 1
cul 1
perfect</w> 1
tou 1
dam 1
welcome</w> 1
football</w> 1
hi</w> 1
pap 1
wait</w> 1
ada</w> 1
congrats</w> 1
young</w> 1
excited</w> 1
rece 1
jan 1
va</w> 1
red 1
stra 1
media</w> 1
'd</w> 1
does</w> 1
let 1
mul 1
ills</w> 1
green</w> 1
mel 1
toge 1
future</w> 1
yester 1
versity</w> 1
form</w> 1
tain</w> 1
ide 1
ches</w> 1
kids</w> 1
qui 1
haha 1
deta 1
big 1
favorite</w> 1
girls</w> 1
contin 1
dom</w> 1
search</w> 1
ual</w> 1
air</w> 1
ders</w> 1
month</w> 1
cer</w> 1
yesterday</w> 1
community</w> 1
ade</w> 1
dog</w> 1
ville</w> 1
ices</w> 1
deli 1
syste 1
run</w> 1
ism</w> 1
heart</w> 1
cup</w> 1
enti 1
few</w> 1
president</w> 1
eds</w> 1
until</w> 1
festi 1
ok 1
flo 1
said</w> 1
ole</w> 1
med 1
travel</w> 1
Â£</w> 1
phone</w> 1
together</w> 1
fast</w> 1
lot</w> 1
games</w> 1
shir 1
between</w> 1
yes</w> 1
thers</w> 1
doing</w> 1
mac 1
ator</w> 1
band</w> 1
follow 1
project</w> 1
develop 1
diffe 1
confe 1
speci 1
cast</w> 1
ys 1
board</w> 1
rd</w> 1
ial</w> 1
shoo 1
ram 1
having</w> 1
share</w> 1
follow</w> 1
one 1
name</w> 1
mr</w> 1
put</w> 1
discu 1
ory</w> 1
came</w> 1
ous 1
site</w> 1
twitter</w> 1
tb 1
tit 1
finally</w> 1
zed</w> 1
super</w> 1
compan 1
using</w> 1
alls</w> 1
list</w> 1
ris</w> 1
shot</w> 1
gal 1
tar 1
del</w> 1
john 1
âĢĶ</w> 1
something</w> 1
ram</w> 1
intere 1
whe 1
bit</w> 1
ðŁį 1
street</w> 1
ound 1
ai 1
tickets</w> 1
movie</w> 1
real 1
ky 1
taking</w> 1
opp 1
cc</w> 1
lam 1
moun 1
inve 1
black 1
used</w> 1
online</w> 1
yor 1
local</w> 1
gue 1
cks</w> 1
ow 1
gest</w> 1
boys</w> 1
illion</w> 1
cont 1
reci 1
ined</w> 1
euro 1
now 1
seen</w> 1
ph</w> 1
teach 1
def 1
south</w> 1
such</w> 1
award</w> 1
must</w> 1
issu 1
care 1
feel</w> 1
plu 1
latest</w> 1
sports</w> 1
web 1
tex 1
ement</w> 1
sk</w> 1
fic</w> 1
wan 1
tech</w> 1
ot</w> 1
box</w> 1
ner 1
free 1
tal</w> 1
ash 1
case</w> 1
hot</w> 1
wonder 1
meeting</w> 1
era</w> 1
chall 1
ðŁĲ 1
job</w> 1
ili 1
cool</w> 1
jour 1
ths</w> 1
mo</w> 1
fel 1
die</w> 1
micha 1
ele 1
team 1
service</w> 1
stand</w> 1
makes</w> 1
ping</w> 1
early</w> 1
comes</w> 1
ek</w> 1
holi 1
vers</w> 1
ague</w> 1
sau 1
three</w> 1
monday</w> 1
fashi 1
someone</w> 1
thro 1
sea</w> 1
bad</w> 1
suppor 1
turn</w> 1
ury</w> 1
ming</w> 1
photography</w> 1
nic 1
mark</w> 1
pretty</w> 1
ssing</w> 1
watching</w> 1
memb 1
arri 1
county</w> 1
beach</w> 1
fran 1
center</w> 1
police</w> 1
bat 1
public</w> 1
tan 1
press</w> 1
saf 1
sy</w> 1
gets</w> 1
roy 1
ners</w> 1
your 1
buy</w> 1
sters</w> 1
show 1
ased</w> 1
childre 1
afric 1
ines</w> 1
space</w> 1
scri 1
hall</w> 1
pain 1
aring</w> 1
home 1
mur 1
health 1
ched</w> 1
sand 1
recei 1
guy</w> 1
ea 1
american</w> 1
resi 1
children</w> 1
-- 1
iri 1
ington</w> 1
country</w> 1
ross</w> 1
len</w> 1
anna</w> 1
books</w> 1
bc</w> 1
ece</w> 1
dom 1
lovely</w> 1
kh 1
pet 1
gy 1
gri 1
stage</w> 1
office</w> 1
rock</w> 1
mon</w> 1
bay</w> 1
table</w> 1
sun</w> 1
med</w> 1
thin 1
lor 1
flow 1
(@</w> 1
university</w> 1
store</w> 1
front</w> 1
good 1
za</w> 1
vote</w> 1
north</w> 1
hey</w> 1
anim 1
order</w> 1
mid 1
without</w> 1
ade 1
remember</w> 1
market</w> 1
??</w> 1
mus 1
training</w> 1
educ 1
but 1
cover</w> 1
stan 1
scen 1
bla 1
break 1
lou 1
same</w> 1
gold</w> 1
ain</w> 1
os 1
both</w> 1
lit 1
vern 1
ai</w> 1
albu 1
pa</w> 1
enjoy</w> 1
beg 1
elling</w> 1
thursday</w> 1
info</w> 1
san</w> 1
america</w> 1
hair</w> 1
tel</w> 1
march</w> 1
concer 1
college</w> 1
conference</w> 1
app</w> 1
hour</w> 1
chang 1
âļ 1
sour 1
ols</w> 1
weather</w> 1
war</w> 1
phi 1
festival</w> 1
second</w> 1
cute</w> 1
prac 1
ener 1
stry</w> 1
lea 1
polit 1
sav 1
sen</w> 1
ow</w> 1
mi</w> 1
near</w> 1
ought</w> 1
ze 1
coffe 1
willi 1
dan 1
sey</w> 1
david</w> 1
ese</w> 1
fan</w> 1
deci 1
theat 1
nov 1
ation 1
trac 1
sci 1
review</w> 1
cel 1
em</w> 1
un</w> 1
july</w> 1
orig 1
tion 1
dru 1
former</w> 1
stay</w> 1
after 1
inv 1
took</w> 1
data</w> 1
bal</w> 1
tues 1
dan</w> 1
evening</w> 1
ðŁĺĤðŁĺĤ 1
dol 1
ures</w> 1
provi 1
ts 1
est 1
sign</w> 1
jac 1
uk 1
song</w> 1
yet</w> 1
bow 1
indu 1
jap 1
hoo 1
point</w> 1
anyone</w> 1
zy</w> 1
ist</w> 1
hur 1
ital 1
building</w> 1
woman</w> 1
chur 1
jer 1
perfor 1
coach</w> 1
league</w> 1
cess 1
net</w> 1
imag 1
nation 1
brit 1
que</w> 1
awards</w> 1
ages</w> 1
works</w> 1
ced</w> 1
mance</w> 1
late</w> 1
ign</w> 1
money</w> 1
true</w> 1
ii</w> 1
tell</w> 1
plac 1
pac 1
asy</w> 1
world 1
behin 1
import 1
reading</w> 1
gram</w> 1
giving</w> 1
met</w> 1
hit</w> 1
forward</w> 1
stom 1
present 1
june</w> 1
social</w> 1
noon</w> 1
mart 1
half</w> 1
swe 1
govern 1
ker 1
details</w> 1
lish</w> 1
__ 1
acy</w> 1
sia</w> 1
bert</w> 1
fall</w> 1
!!!!</w> 1
),</w> 1
thi 1
diti 1
sport</w> 1
king 1
fit 1
staf 1
cat</w> 1
muse 1
centr 1
yer</w> 1
contro 1
bloo 1
walk</w> 1
actu 1
didn</w> 1
lim 1
learning</w> 1
research</w> 1
wedne 1
auth 1
hours</w> 1
ky</w> 1
far</w> 1
hen 1
.... 1
itch 1
ril</w> 1
strong</w> 1
sky</w> 1
questi 1
james</w> 1
ron 1
dg 1
fur 1
cin 1
does 1
appro 1
marke 1
tures</w> 1
fully</w> 1
chat</w> 1
behind</w> 1
tem 1
fini 1
mission</w> 1
batt 1
feel 1
heav 1
everything</w> 1
bar</w> 1
wish</w> 1
premi 1
ima 1
experience</w> 1
each</w> 1
report</w> 1
sweet</w> 1
tics</w> 1
spring</w> 1
respon 1
system</w> 1
victor 1
lin</w> 1
saw</w> 1
already</w> 1
ghter</w> 1
fle 1
ãĥ 1
bring</w> 1
album</w> 1
--</w> 1
ells</w> 1
stan</w> 1
tom</w> 1
international</w> 1
went</w> 1
anni 1
match</w> 1
pper</w> 1
stone</w> 1
small</w> 1
rain</w> 1
fashion</w> 1
area</w> 1
van 1
agram</w> 1
ko</w> 1
thought</w> 1
worth</w> 1
van</w> 1
mer</w> 1
coffee</w> 1
ites</w> 1
gn 1
artist</w> 1
con</w> 1
arch 1
cir 1
secre 1
ground</w> 1
iso 1
hand</w> 1
com</w> 1
bridge</w> 1
hs</w> 1
xi 1
link</w> 1
pul 1
spl 1
race</w> 1
fli 1
river</w> 1
gas</w> 1
disco 1
dal 1
player</w> 1
fit</w> 1
photos</w> 1
ity 1
ok</w> 1
jor 1
tra</w> 1
april</w> 1
ads</w> 1
adi 1
solu 1
beauty</w> 1
door</w> 1
mess 1
update</w> 1
alia</w> 1
scho 1
ened</w> 1
moment</w> 1
scot 1
science</w> 1
ior</w> 1
ties</w> 1
across</w> 1
ously</w> 1
shes</w> 1
doesn</w> 1
page</w> 1
water 1
million</w> 1
classi 1
lic 1
cast 1
formation</w> 1
michael</w> 1
ello</w> 1
smo 1
ints</w> 1
vision</w> 1
opening</w> 1
ldn</w> 1
austr 1
tuesday</w> 1
winner</w> 1
possi 1
round</w> 1
shirt</w> 1
dit</w> 1
bo</w> 1
ues</w> 1
illed</w> 1
along</w> 1
trip</w> 1
starting</w> 1
impro 1
kan 1
person</w> 1
not 1
reco 1
needs</w> 1
cle</w> 1
lie</w> 1
rest</w> 1
ring</w> 1
winter</w> 1
simp 1
mom</w> 1
beer</w> 1
face 1
tors</w> 1
usa</w> 1
collection</w> 1
geor 1
session</w> 1
trying</w> 1
las</w> 1
lake</w> 1
jen 1
origin 1
student</w> 1
secur 1
vin</w> 1
pics</w> 1
expe 1
comp 1
gonna</w> 1
equ 1
bad 1
ley 1
au</w> 1
members</w> 1
break</w> 1
wall</w> 1
gic</w> 1
dinner</w> 1
bul 1
inspir 1
ri</w> 1
mind</w> 1
ica</w> 1
winning</w> 1
talking</w> 1
tren 1
sis</w> 1
ten</w> 1
wonderful</w> 1
snow</w> 1
hear</w> 1
thom 1
nothing</w> 1
gui 1
stin 1
blog</w> 1
fest</w> 1
bun 1
lee</w> 1
wards</w> 1
chance</w> 1
dress</w> 1
ren</w> 1
paul</w> 1
pes</w> 1
techno 1
russi 1
card</w> 1
east</w> 1
mari 1
wine</w> 1
ti</w> 1
law</w> 1
stric 1
ki</w> 1
ape</w> 1
augu 1
profe 1
ash</w> 1
course</w> 1
mail</w> 1
rently</w> 1
dun 1
mun 1
love 1
island</w> 1
drive</w> 1
sl 1
ended</w> 1
main</w> 1
lost</w> 1
nature</w> 1
âĿ¤ï¸ı 1
chic 1
repor 1
pin 1
pro</w> 1
station</w> 1
cep 1
takes</w> 1
company</w> 1
goes</w> 1
ond</w> 1
mach 1
radio</w> 1
dad</w> 1
rock 1
ja</w> 1
pay 1
champion 1
ee 1
inde 1
tta</w> 1
atic</w> 1
tab 1
believe</w> 1
energy</w> 1
zi 1
tat 1
word</w> 1
once</w> 1
resul 1
yl 1
andre 1
ano</w> 1
instagram</w> 1
close</w> 1
tam 1
custom 1
wa</w> 1
conom 1
shows</w> 1
life 1
kin</w> 1
rob 1
tage</w> 1
nation</w> 1
almost</w> 1
listen</w> 1
save</w> 1
reli 1
ace 1
mary</w> 1
tree</w> 1
forget</w> 1
jack 1
waiting</w> 1
director</w> 1
hill</w> 1
born</w> 1
temp 1
fl</w> 1
ste</w> 1
ona</w> 1
single</w> 1
wednesday</w> 1
united</w> 1
ino</w> 1
@_</w> 1
nel</w> 1
celebrate</w> 1
ending</w> 1
deal</w> 1
ji</w> 1
canada</w> 1
huge</w> 1
track</w> 1
âĢ¢</w> 1
fy</w> 1
fanta 1
ang</w> 1
york</w> 1
release</w> 1
pun 1
episo 1
words</w> 1
tour 1
pack 1
igh 1
classic</w> 1
performance</w> 1
ket 1
afternoon</w> 1
record</w> 1
wins</w> 1
proble 1
âĿ¤</w> 1
four</w> 1
bed</w> 1
bank</w> 1
dance</w> 1
sla 1
called</w> 1
might</w> 1
ap</w> 1
past</w> 1
ðŁļ 1
different</w> 1
ite 1
gift</w> 1
ssive</w> 1
church</w> 1
cus</w> 1
program</w> 1
hotel</w> 1
ice 1
mad 1
security</w> 1
enge</w> 1
dc</w> 1
enough</w> 1
sta</w> 1
ety</w> 1
dead</w> 1
gun 1
hear 1
mir 1
human</w> 1
gress</w> 1
ounds</w> 1
piece</w> 1
breaking</w> 1
garden</w> 1
fight</w> 1
views</w> 1
fish</w> 1
started</w> 1
running</w> 1
green 1
seri 1
sm</w> 1
ask</w> 1
dor 1
death</w> 1
econom 1
eri 1
ird</w> 1
ser</w> 1
lunch</w> 1
âģ¦ 1
box 1
natu 1
base 1
ban</w> 1
fal 1
global</w> 1
wild 1
wow</w> 1
outside</w> 1
move</w> 1
lead</w> 1
anal 1
museum</w> 1
ong 1
haw 1
power 1
thank 1
bac 1
charac 1
campa 1
digital</w> 1
ro</w> 1
oper 1
dev 1
wol 1
pati 1
fa</w> 1
male</w> 1
paper</w> 1
illing</w> 1
cs</w> 1
âĥ 1
education</w> 1
taken</w> 1
effe 1
mou 1
sad 1
".</w> 1
based</w> 1
staff</w> 1
including</w> 1
living</w> 1
ac</w> 1
china</w> 1
mob 1
storm</w> 1
luck</w> 1
phil 1
oo</w> 1
yn 1
travel 1
kel 1
tial</w> 1
price</w> 1
book 1
important</w> 1
bio 1
pool</w> 1
nyc</w> 1
fab 1
load</w> 1
?!</w> 1
challenge</w> 1
cry 1
serve</w> 1
wear</w> 1
bus</w> 1
tain 1
number</w> 1
ror</w> 1
kat 1
iz 1
though</w> 1
hosp 1
mm</w> 1
fair</w> 1
utes</w> 1
hot 1
pop</w> 1
fied</w> 1
camp 1
development</w> 1
libr 1
cali 1
ems</w> 1
âģ¦@</w> 1
bol 1
ised</w> 1
standing</w> 1
model</w> 1
ita</w> 1
gle</w> 1
brown</w> 1
image</w> 1
vered</w> 1
force</w> 1
oil</w> 1
partic 1
shu 1
daily</w> 1
law 1
sec 1
class 1
camp</w> 1
holiday</w> 1
clin 1
kers</w> 1
present</w> 1
game 1
incredi 1
ership</w> 1
interview</w> 1
bill</w> 1
due</w> 1
andy</w> 1
abo 1
innov 1
key 1
acade 1
pil 1
moder 1
stars</w> 1
brand</w> 1
fer</w> 1
weeks</w> 1
consi 1
pre</w> 1
safe 1
writ 1
dium</w> 1
launch</w> 1
marketing</w> 1
annual</w> 1
assi 1
court</w> 1
lady</w> 1
cted</w> 1
anda</w> 1
inside</w> 1
child</w> 1
oppor 1
smith</w> 1
centre</w> 1
gue</w> 1
âģ©</w> 1
fren 1
sty</w> 1
fort</w> 1
ently</w> 1
isn</w> 1
keep 1
tober</w> 1
ony</w> 1
boy 1
ald</w> 1
colla 1
demo 1
level</w> 1
compet 1
ado</w> 1
bour 1
fantastic</w> 1
mate</w> 1
su</w> 1
south 1
opportun 1
versary</w> 1
later</w> 1
bud 1
facebook</w> 1
laun 1
stern</w> 1
pit 1
!"</w> 1
maj 1
gram 1
tbt</w> 1
fire 1
happy 1
aks</w> 1
whole</w> 1
actually</w> 1
iller</w> 1
ella</w> 1
lots</w> 1
alex 1
ange 1
lands</w> 1
ðŁĺŃ 1
enter 1
rou 1
episode</w> 1
ped</w> 1
inten 1
shire</w> 1
who 1
plan</w> 1
ho</w> 1
cake</w> 1
west 1
magaz 1
fresh</w> 1
cc 1
nar 1
chris</w> 1
writing</w> 1
wer</w> 1
nom 1
lo</w> 1
midd 1
dream</w> 1
ol</w> 1
tional</w> 1
deb 1
>></w> 1
become</w> 1
si</w> 1
grand</w> 1
alling</w> 1
histor 1
ride</w> 1
ired</w> 1
safe</w> 1
queen</w> 1
cil</w> 1
intro 1
vil</w> 1
dani 1
... 1
artic 1
stat 1
short</w> 1
oring</w> 1
selfi 1
missi 1
doc 1
bit 1
gall 1
bom 1
ire 1
selec 1
dition</w> 1
ðŁĶ¥</w> 1
friend 1
beat</w> 1
ghting</w> 1
ðŁĺĬ</w> 1
peace</w> 1
exhi 1
anta</w> 1
ability</w> 1
illu 1
jon 1
quality</w> 1
tribu 1
mes</w> 1
players</w> 1
fair 1
cut</w> 1
cab 1
success</w> 1
bi</w> 1
sus</w> 1
promo 1
sche 1
ange</w> 1
ico</w> 1
commit 1
catch</w> 1
illa</w> 1
kind</w> 1
feeling</w> 1
quo 1
say 1
anniversary</w> 1
spot</w> 1
mother</w> 1
ane</w> 1
pend 1
yourself</w> 1
ops</w> 1
apple</w> 1
minutes</w> 1
po</w> 1
grand 1
ries</w> 1
haha</w> 1
career</w> 1
edition</w> 1
dec 1
rick</w> 1
ami</w> 1
concert</w> 1
itive</w> 1
geous</w> 1
dly</w> 1
tte</w> 1
advent 1
ig</w> 1
lights</w> 1
aker</w> 1
sky 1
âĥ£</w> 1
ray</w> 1
finished</w> 1
way 1
sd 1
accoun 1
ðŁĴķ</w> 1
cky</w> 1
chel 1
liter 1
painting</w> 1
los</w> 1
stun 1
technology</w> 1
nas 1
mar</w> 1
bil 1
africa</w> 1
kie</w> 1
eyes</w> 1
golf</w> 1
plus</w> 1
nia</w> 1
itec 1
services</w> 1
wedding</w> 1
known</w> 1
tele 1
.....</w> 1
starts</w> 1
paren 1
wants</w> 1
ational</w> 1
months</w> 1
windo 1
favour 1
ert</w> 1
magazine</w> 1
exclu 1
reve 1
bc 1
original</w> 1
ess 1
nal</w> 1
anti 1
stro 1
tice</w> 1
study</w> 1
à¤ 1
vac 1
national 1
five</w> 1
rain 1
vement</w> 1
ute</w> 1
verse</w> 1
emer 1
army</w> 1
possible</w> 1
guess</w> 1
valley</w> 1
thern</w> 1
crow 1
mr 1
color</w> 1
onto</w> 1
pick</w> 1
clear</w> 1
dark</w> 1
tac 1
wanted</w> 1
itting</w> 1
cancer</w> 1
government</w> 1
die 1
rise</w> 1
zing</w> 1
cold</w> 1
foun 1
studio</w> 1
stration</w> 1
brother</w> 1
ahead</w> 1
shel 1
micro 1
ically</w> 1
dau 1
signed</w> 1
viol 1
ax 1
asse 1
io 1
wre 1
splay</w> 1
chick 1
august</w> 1
plat 1
tips</w> 1
spi 1
human 1
easy</w> 1
logi 1
mike</w> 1
grow 1
agre 1
ww 1
shad 1
motiv 1
wide</w> 1
turns</w> 1
omg</w> 1
var 1
defin 1
sug 1
jim 1
ðŁĶ¥ 1
td</w> 1
campaign</w> 1
named</w> 1
retweet</w> 1
cop 1
tv 1
leav 1
kis 1
double</w> 1
smar 1
issue</w> 1
villa 1
information</w> 1
lies</w> 1
stock</w> 1
nt</w> 1
distric 1
shor 1
mix 1
ero 1
sep 1
mex 1
seeing</w> 1
live 1
remin 1
code</w> 1
gur 1
sc</w> 1
wild</w> 1
lun 1
hood</w> 1
spot 1
father</w> 1
forever</w> 1
upd 1
traf 1
fly</w> 1
need 1
gradu 1
train</w> 1
make 1
sab 1
bey 1
size</w> 1
leader</w> 1
talks</w> 1
eu</w> 1
log 1
fox</w> 1
gorgeous</w> 1
less 1
lets</w> 1
surpri 1
myself</w> 1
note</w> 1
lives</w> 1
fru 1
loved</w> 1
sever 1
dem 1
ji 1
soc 1
hold</w> 1
dogs</w> 1
ni</w> 1
âŀ 1
leave</w> 1
airport</w> 1
benef 1
expl 1
ships</w> 1
complete</w> 1
achi 1
great 1
vintage</w> 1
jack</w> 1
roc 1
wood 1
priv 1
offer</w> 1
eye</w> 1
version</w> 1
tea</w> 1
coach 1
offic 1
well 1
gen</w> 1
sat</w> 1
hh 1
youth</w> 1
ox 1
?"</w> 1
mt</w> 1
mix</w> 1
gg</w> 1
dle</w> 1
natural</w> 1
build</w> 1
breakfast</w> 1
thinking</w> 1
theatre</w> 1
moon</w> 1
berg</w> 1
goals</w> 1
george</w> 1
ene 1
excell 1
iling</w> 1
tune</w> 1
yed</w> 1
gate</w> 1
mit 1
network</w> 1
joe</w> 1
hello</w> 1
fb</w> 1
tube</w> 1
wearing</w> 1
athle 1
struc 1
hard 1
glass</w> 1
gers</w> 1
throw 1
ges</w> 1
bt 1
industry</w> 1
management</w> 1
alist</w> 1
goal</w> 1
stream</w> 1
yel 1
avi 1
icious</w> 1
others</w> 1
ski 1
christi 1
bird</w> 1
esc 1
min</w> 1
tro</w> 1
lt</w> 1
jan</w> 1
imp 1
rights</w> 1
sha</w> 1
organ 1
central</w> 1
ara</w> 1
roll</w> 1
favourite</w> 1
chester</w> 1
else</w> 1
pay</w> 1
cars</w> 1
mine</w> 1
step</w> 1
practice</w> 1
major</w> 1
hang 1
ðŁĺĺ</w> 1
non</w> 1
vari 1
engine 1
volun 1
dia</w> 1
iled</w> 1
architec 1
pink</w> 1
ds 1
thy</w> 1
wash 1
website</w> 1
bag</w> 1
control</w> 1
elli 1
fra 1
answ 1
dence</w> 1
yu 1
ron</w> 1
ola</w> 1
gin 1
drin 1
lic</w> 1
couple</w> 1
spar 1
gon</w> 1
create</w> 1
ct 1
celebrating</w> 1
deep</w> 1
eat</w> 1
tee</w> 1
voice</w> 1
drop</w> 1
visit 1
ators</w> 1
stadium</w> 1
ft 1
wis 1
rol 1
grade</w> 1
famil 1
points</w> 1
repre 1
was 1
traffic</w> 1
japan</w> 1
org 1
honor</w> 1
texas</w> 1
manu 1
âĻ¥</w> 1
safety</w> 1
rer</w> 1
bag 1
emplo 1
released</w> 1
regu 1
aka</w> 1
nav 1
role</w> 1
senior</w> 1
spect</w> 1
cross</w> 1
lines</w> 1
best 1
pack</w> 1
sin</w> 1
tie</w> 1
missing</w> 1
sunset</w> 1
liber 1
ising</w> 1
jay 1
ski</w> 1
championship</w> 1
activ 1
ladies</w> 1
played</w> 1
yy 1
publ 1
alo 1
pride</w> 1
sr 1
paki 1
lux 1
survi 1
cked</w> 1
ets</w> 1
chocol 1
australia</w> 1
paris</w> 1
miles</w> 1
hat 1
mental</w> 1
ala</w> 1
mean</w> 1
mobile</w> 1
ena</w> 1
insi 1
found 1
chief</w> 1
tag 1
incredible</w> 1
return</w> 1
Ã© 1
google</w> 1
french</w> 1
crew</w> 1
hallo 1
alian</w> 1
jaz 1
cher</w> 1
silver</w> 1
north 1
english</w> 1
baseball</w> 1
caf 1
limited</w> 1
following</w> 1
appreci 1
earth</w> 1
kir 1
vember</w> 1
wed</w> 1
ption</w> 1
ged</w> 1
october</w> 1
flori 1
cr</w> 1
ency</w> 1
gave</w> 1
lord</w> 1
stuff</w> 1
berry</w> 1
post 1
smile</w> 1
broad 1
state 1
gger</w> 1
means</w> 1
icy</w> 1
gun</w> 1
yo</w> 1
master</w> 1
burg</w> 1
hands</w> 1
nie</w> 1
//</w> 1
union</w> 1
british</w> 1
biggest</w> 1
district</w> 1
aming</w> 1
hil 1
oce 1
person 1
pass</w> 1
envir 1
schools</w> 1
arrived</w> 1
ances</w> 1
inspired</w> 1
expla 1
ben</w> 1
library</w> 1
bott 1
amp 1
steph 1
contact</w> 1
bang 1
ms 1
califor 1
told</w> 1
battle</w> 1
bb</w> 1
chicago</w> 1
âľ¨</w> 1
strate 1
shi</w> 1
dece 1
-)</w> 1
add</w> 1
lab 1
jones</w> 1
legend</w> 1
castle</w> 1
inger</w> 1
stance</w> 1
bel</w> 1
ura</w> 1
refu 1
leaders</w> 1
pot 1
sex 1
hic 1
article</w> 1
kid</w> 1
france</w> 1
xx</w> 1
exe 1
guide</w> 1
volunte 1
print</w> 1
ali</w> 1
ceo</w> 1
tweets</w> 1
wx</w> 1
scene</w> 1
volu 1
anti</w> 1
han</w> 1
associ 1
sharing</w> 1
rose</w> 1
minister</w> 1
sher 1
inste 1
clean 1
democr 1
poster</w> 1
skin</w> 1
psy 1
proper 1
crazy</w> 1
iam 1
ore 1
ini</w> 1
anything</w> 1
pod 1
moving</w> 1
click</w> 1
explo 1
comb 1
craft</w> 1
fi</w> 1
blood</w> 1
isra 1
public 1
dent 1
olym 1
england</w> 1
asi 1
cher 1
fact</w> 1
environ 1
harry</w> 1
gone</w> 1
medic 1
enjoying</w> 1
justice</w> 1
jr</w> 1
indian</w> 1
wife</w> 1
sound</w> 1
tes</w> 1
drawing</w> 1
pal</w> 1
idea</w> 1
crit 1
juli 1
iler</w> 1
warm</w> 1
clar 1
thoughts</w> 1
defen 1
council</w> 1
introduc 1
died</w> 1
janu 1
ani</w> 1
send</w> 1
lier</w> 1
ml 1
interesting</w> 1
trade</w> 1
wind</w> 1
bay 1
sac 1
ancy</w> 1
source</w> 1
bes</w> 1
organi 1
arly</w> 1
large</w> 1
ffici 1
tag</w> 1
ut</w> 1
desp 1
oes</w> 1
title</w> 1
sym 1
pictures</w> 1
open 1
women 1
showing</w> 1
ria</w> 1
least</w> 1
leadership</w> 1
current</w> 1
electr 1
valent 1
listening</w> 1
ckey</w> 1
general</w> 1
deser 1
duce</w> 1
;)</w> 1
cent</w> 1
ðŁĺįðŁĺį 1
scott</w> 1
poor</w> 1
selfie</w> 1
events</w> 1
ion</w> 1
wrong</w> 1
dev</w> 1
hill 1
septe 1
culture</w> 1
line 1
sorry</w> 1
sent</w> 1
sister</w> 1
cept</w> 1
kri 1
november</w> 1
ari</w> 1
announce</w> 1
zation</w> 1
bran 1
gent 1
du</w> 1
len 1
pers 1
fm</w> 1
martin</w> 1
op</w> 1
emb 1
ome 1
middle</w> 1
success 1
peter</w> 1
january</w> 1
flu 1
racing</w> 1
dav 1
bike</w> 1
ðŁı»</w> 1
pet</w> 1
shoot</w> 1
professi 1
featuring</w> 1
september</w> 1
nowplaying</w> 1
staur 1
za 1
onic</w> 1
quick</w> 1
baske 1
speaking</w> 1
milit 1
zer</w> 1
chicken</w> 1
bell</w> 1
sad</w> 1
coast</w> 1
loving</w> 1
yers</w> 1
dj</w> 1
panel</w> 1
verage</w> 1
swit 1
icks</w> 1
bou 1
california</w> 1
sam</w> 1
parents</w> 1
ero</w> 1
killed</w> 1
phys 1
jobs</w> 1
migr 1
anth 1
emo 1
halloween</w> 1
ander 1
cm</w> 1
competition</w> 1
eag 1
sket 1
spir 1
maybe</w> 1
exclusive</w> 1
appe 1
journey</w> 1
screen</w> 1
ford 1
io</w> 1
hate</w> 1
ug 1
soul</w> 1
hero</w> 1
society</w> 1
syn 1
guit 1
nh 1
dj 1
ases</w> 1
impre 1
time 1
sales</w> 1
dd</w> 1
fts</w> 1
summit</w> 1
stunning</w> 1
oms</w> 1
turned</w> 1
clean</w> 1
soft</w> 1
beat 1
restaur 1
dered</w> 1
ences</w> 1
magic</w> 1
dio 1
shine</w> 1
guest</w> 1
healthy</w> 1
exhib 1
stories</w> 1
popu 1
nis</w> 1
ela</w> 1
below</w> 1
funny</w> 1
results</w> 1
sne 1
currently</w> 1
ard 1
download</w> 1
flight</w> 1
mal</w> 1
fine</w> 1
pad 1
chu 1
ented</w> 1
hat</w> 1
ðŁĳı 1
steve</w> 1
jo</w> 1
mark 1
rat 1
ball 1
pc</w> 1
pon 1
bby</w> 1
oli 1
arts</w> 1
asure</w> 1
bowl</w> 1
attack</w> 1
mic</w> 1
dear</w> 1
range</w> 1
enter</w> 1
chocolate</w> 1
brilli 1
access</w> 1
,"</w> 1
???</w> 1
chap 1
const 1
tn 1
matter</w> 1
blue 1
gallery</w> 1
emp 1
workshop</w> 1
leading</w> 1
yours</w> 1
basketball</w> 1
wanna</w> 1
thu 1
__</w> 1
marri 1
sleep</w> 1
bia</w> 1
che</w> 1
mad</w> 1
impact</w> 1
own 1
sir</w> 1
channel</w> 1
europe</w> 1
esp 1
kitch 1
hospital</w> 1
wra 1
royal</w> 1
fs</w> 1
neu 1
quar 1
ney 1
acks</w> 1
chase</w> 1
ppy</w> 1
stal 1
ately</w> 1
tim</w> 1
december</w> 1
rare</w> 1
perform 1
cream</w> 1
weight</w> 1
choo 1
night 1
haven</w> 1
franc 1
khan</w> 1
built</w> 1
helping</w> 1
trust</w> 1
type</w> 1
golden</w> 1
tax</w> 1
snow 1
swi 1
disa 1
questions</w> 1
vey</w> 1
light 1
cn 1
cloud</w> 1
thomas</w> 1
aged</w> 1
shou 1
teams</w> 1
gran 1
reason</w> 1
aa</w> 1
youtube</w> 1
vp</w> 1
pizz 1
manager</w> 1
bury</w> 1
credit</w> 1
treat</w> 1
max</w> 1
ik 1
main 1
ging</w> 1
dead 1
probab 1
yeah</w> 1
ãĤ 1
brand 1
soli 1
plant</w> 1
tayl 1
girl 1
ðŁĺŃ</w> 1
nament</w> 1
auto 1
message</w> 1
kore 1
nur 1
terr 1
agu 1
map</w> 1
senting</w> 1
loves</w> 1
gives</w> 1
gab 1
zen</w> 1
robert</w> 1
confir 1
wars</w> 1
om</w> 1
stain 1
camera</w> 1
ander</w> 1
wonder</w> 1
ab</w> 1
cap</w> 1
sold</w> 1
suit</w> 1
walking</w> 1
continue</w> 1
effec 1
daughter</w> 1
danc 1
chain</w> 1
multi 1
kid 1
yan 1
champion</w> 1
vo</w> 1
tains</w> 1
host</w> 1
mini</w> 1
missed</w> 1
resc 1
lyn 1
finish</w> 1
delicious</w> 1
sas 1
taylor</w> 1
ib 1
promis 1
products</w> 1
mountain</w> 1
florida</w> 1
register</w> 1
treat 1
recent</w> 1
female</w> 1
booth</w> 1
matt</w> 1
vehic 1
sop 1
motor 1
supporting</w> 1
phic</w> 1
extre 1
drink</w> 1
lane</w> 1
third</w> 1
ps 1
constru 1
cere 1
farm</w> 1
ðŁİī</w> 1
tured</w> 1
ðŁĳī</w> 1
cats</w> 1
aj 1
gie</w> 1
shooting</w> 1
asked</w> 1
pakistan</w> 1
ame 1
mb</w> 1
gil 1
legal</w> 1
square</w> 1
invol 1
draw</w> 1
oooo 1
!!!! 1
opportunity</w> 1
py 1
ei 1
bts</w> 1
teacher</w> 1
character</w> 1
johnson</w> 1
bron 1
lywood</w> 1
chine 1
cing</w> 1
cine 1
dge 1
gaming</w> 1
russia</w> 1
cia</w> 1
quote</w> 1
rich</w> 1
gov 1
flowers</w> 1
spiri 1
stin</w> 1
growth</w> 1
ðŁı¼</w> 1
commer 1
juni 1
mum</w> 1
ran</w> 1
sna 1
aren 1
cb 1
actor</w> 1
color 1
sit</w> 1
pair</w> 1
chi</w> 1
bow</w> 1
academy</w> 1
held</w> 1
rang 1
metal</w> 1
yl</w> 1
active</w> 1
probably</w> 1
tch</w> 1
needed</w> 1
spee 1
choice</w> 1
italy</w> 1
ryan</w> 1
ðŁĩº 1
flower</w> 1
vit 1
mn</w> 1
foundation</w> 1
bak 1
sions</w> 1
neigh 1
floo 1
heard</w> 1
remo 1
fresh 1
inging</w> 1
ref 1
town 1
clou 1
jesus</w> 1
spirit</w> 1
couldn</w> 1
zes</w> 1
ðŁĴĻ</w> 1
williams</w> 1
proce 1
modern</w> 1
process</w> 1
shoes</w> 1
created</w> 1
tric</w> 1
issues</w> 1
anne</w> 1
atten 1
debut</w> 1
hr</w> 1
nit 1
stig 1
apo 1
eps</w> 1
zu 1
ãĢ 1
six</w> 1
cards</w> 1
langu 1
famous</w> 1
tournament</w> 1
sel</w> 1
ebay</w> 1
yn</w> 1
ston 1
kick 1
announced</w> 1
kam 1
voc 1
brilliant</w> 1
house 1
cheese</w> 1
warri 1
music 1
hockey</w> 1
ðŁĺĤðŁĺĤ</w> 1
skills</w> 1
autom 1
smart</w> 1
medical</w> 1
mony</w> 1
ex</w> 1
guar 1
give 1
personal</w> 1
vention</w> 1
alli 1
press 1
floor</w> 1
mc</w> 1
victory</w> 1
him 1
simple</w> 1
thor 1
ðŁĩºðŁĩ 1
tail</w> 1
lucky</w> 1
alex</w> 1
quite</w> 1
bot 1
ssions</w> 1
challeng 1
cann 1
amazon</w> 1
hell</w> 1
bought</w> 1
):</w> 1
edy</w> 1
secret</w> 1
production</w> 1
independ 1
defe 1
added</w> 1
pr</w> 1
pag 1
bed 1
greatest</w> 1
within</w> 1
jay</w> 1
ðŁ¥ 1
ireland</w> 1
rely</w> 1
sd</w> 1
text</w> 1
driving</w> 1
program 1
speed</w> 1
colum 1
stron 1
Ã©</w> 1
forest</w> 1
âĸ 1
machine</w> 1
coin</w> 1
scar 1
ount</w> 1
bie</w> 1
¡ï¸ı</w> 1
portra 1
common</w> 1
wrest 1
received</w> 1
know 1
invest 1
plans</w> 1
accor 1
adop 1
tery</w> 1
reali 1
pp</w> 1
kal 1
artwork</w> 1
mean 1
god 1
instead</w> 1
anci 1
motivation</w> 1
asing</w> 1
inspiration</w> 1
upcoming</w> 1
political</w> 1
europe 1
mers</w> 1
heavy</w> 1
ðŁĳį</w> 1
febru 1
scotland</w> 1
ough 1
bt</w> 1
boss</w> 1
schedu 1
speak</w> 1
nick 1
ured</w> 1
ino 1
ek 1
risk</w> 1
tory</w> 1
presents</w> 1
bon</w> 1
rug 1
states</w> 1
exhibition</w> 1
ilo 1
mill 1
brought</w> 1
:-)</w> 1
touri 1
come 1
officially</w> 1
champions</w> 1
doors</w> 1
rep 1
pose</w> 1
extra</w> 1
kings</w> 1
soccer</w> 1
squad</w> 1
applic 1
ata</w> 1
sometimes</w> 1
tari 1
excellent</w> 1
ðŁĺĺ 1
straight</w> 1
carol 1
rip</w> 1
âĢį 1
graphic</w> 1
mol 1
election</w> 1
february</w> 1
asons</w> 1
li</w> 1
dir 1
mt 1
nick</w> 1
usu 1
mrs</w> 1
comics</w> 1
institu 1
corpor 1
vi</w> 1
ðŁĻı 1
tural</w> 1
dise 1
acci 1
weare 1
among</w> 1
shopping</w> 1
till</w> 1
what 1
chair</w> 1
span 1
chinese</w> 1
innovation</w> 1
joy</w> 1
kit</w> 1
century</w> 1
obama</w> 1
phili 1
fc 1
reach</w> 1
citi 1
ulous</w> 1
non 1
dang 1
happening</w> 1
burn</w> 1
pel 1
orange</w> 1
dv 1
kick</w> 1
claim 1
ingham</w> 1
phy</w> 1
nov</w> 1
podcast</w> 1
whi 1
nights</w> 1
earlier</w> 1
bear</w> 1
lah</w> 1
exciting</w> 1
ora</w> 1
given</w> 1
slo 1
memories</w> 1
continues</w> 1
product</w> 1
gho 1
cd 1
knows</w> 1
ðŁİī 1
published</w> 1
discuss</w> 1
yard</w> 1
iphone</w> 1
tries</w> 1
wall 1
feb</w> 1
aren</w> 1
truth</w> 1
winners</w> 1
ture 1
ditional</w> 1
military</w> 1
problem</w> 1
mand 1
dog 1
loss</w> 1
cric 1
canadi 1
veter 1
village</w> 1
",</w> 1
yr</w> 1
ung</w> 1
donald</w> 1
aging</w> 1
birds</w> 1
scienti 1
les 1
this 1
region</w> 1
tical</w> 1
itten</w> 1
ila</w> 1
ðŁĺİ</w> 1
dad 1
diam 1
above</w> 1
stren 1
lit</w> 1
pir 1
lab</w> 1
focus</w> 1
busy</w> 1
dur 1
apply</w> 1
sma 1
author</w> 1
aci 1
execu 1
domin 1
rela 1
jackson</w> 1
ato</w> 1
washington</w> 1
ðŁĻĮ 1
kill</w> 1
popular</w> 1
cement</w> 1
road 1
eating</w> 1
location</w> 1
vent 1
arre 1
nan 1
custo 1
adventure</w> 1
ordin 1
sport 1
ult</w> 1
lock</w> 1
question</w> 1
driver</w> 1
landsc 1
oni 1
kins</w> 1
pd 1
jordan</w> 1
tered</w> 1
kk 1
af</w> 1
child 1
sp</w> 1
justin</w> 1
eni 1
selling</w> 1
zo 1
whit 1
boston</w> 1
particip 1
signing</w> 1
happened</w> 1
heat</w> 1
mam 1
dreams</w> 1
lows</w> 1
graph</w> 1
theday</w> 1
heading</w> 1
bro</w> 1
blessed</w> 1
vic</w> 1
vegas</w> 1
hd</w> 1
inning</w> 1
roman 1
andro 1
denti 1
use 1
cit 1
progress</w> 1
writer</w> 1
bob</w> 1
ffs</w> 1
growing</w> 1
bly</w> 1
aware 1
exam 1
spent</w> 1
bet</w> 1
score</w> 1
beyond</w> 1
docu 1
adel 1
sf 1
coura 1
collabor 1
inc</w> 1
private</w> 1
boat</w> 1
**</w> 1
zone</w> 1
pha 1
bill 1
total</w> 1
planning</w> 1
towards</w> 1
places</w> 1
preview</w> 1
creative</w> 1
damn</w> 1
ideas</w> 1
seems</w> 1
poten 1
saying</w> 1
display</w> 1
sw</w> 1
aqu 1
louis</w> 1
bye</w> 1
lil</w> 1
email</w> 1
western</w> 1
germany</w> 1
eller</w> 1
res 1
fant 1
mentary</w> 1
deals</w> 1
richard</w> 1
jersey</w> 1
streng 1
rad 1
pizza</w> 1
mond</w> 1
ware</w> 1
lac 1
gi</w> 1
archi 1
cd</w> 1
yellow</w> 1
recently</w> 1
reach 1
à¹ 1
kitchen</w> 1
designed</w> 1
try 1
gal</w> 1
restaurant</w> 1
ature</w> 1
ww</w> 1
jas 1
lma 1
ðŁĳĮ</w> 1
pain</w> 1
avo 1
minute</w> 1
schol 1
therap 1
ticket</w> 1
dry</w> 1
japan 1
ditions</w> 1
terri 1
selves</w> 1
happen</w> 1
tup</w> 1
mag</w> 1
copy</w> 1
sher</w> 1
freedom</w> 1
file</w> 1
specially</w> 1
toronto</w> 1
load 1
gary</w> 1
rey</w> 1
answer</w> 1
loy 1
caught</w> 1
prize</w> 1
une 1
fication</w> 1
niger 1
syd 1
touch</w> 1
feature</w> 1
jazz</w> 1
records</w> 1
himself</w> 1
dish</w> 1
rober 1
spotted</w> 1
master 1
wave</w> 1
finals</w> 1
bull 1
forum</w> 1
ald 1
recomm 1
cha</w> 1
ae</w> 1
doo 1
instru 1
truly</w> 1
lg 1
ink 1
brothers</w> 1
dest</w> 1
jim</w> 1
mit</w> 1
closed</w> 1
ison</w> 1
tried</w> 1
santa</w> 1
affe 1
wan</w> 1
horse</w> 1
grow</w> 1
campus</w> 1
relation 1
native</w> 1
journ 1
gov</w> 1
oct</w> 1
kit 1
bound</w> 1
partner</w> 1
rema 1
crowd</w> 1
!)</w> 1
calls</w> 1
rail 1
quali 1
solution</w> 1
contest</w> 1
convers 1
snap 1
base</w> 1
initi 1
tax 1
ye</w> 1
entrepre 1
itor</w> 1
construction</w> 1
food 1
presented</w> 1
nings</w> 1
climate</w> 1
km</w> 1
model 1
bj 1
block</w> 1
presentation</w> 1
dream 1
fix 1
calling</w> 1
busine 1
congress</w> 1
understand</w> 1
web</w> 1
value</w> 1
ï¸ıâĥ£</w> 1
mexico</w> 1
itely</w> 1
kim</w> 1
charity</w> 1
reflec 1
blan 1
flying</w> 1
analy 1
families</w> 1
band 1
recipe</w> 1
celebration</w> 1
accep 1
ary 1
tot 1
gb</w> 1
interested</w> 1
captain</w> 1
âĻ¥ 1
tip</w> 1
absol 1
braz 1
investig 1
ology</w> 1
dec</w> 1
truck</w> 1
vering</w> 1
clear 1
dont</w> 1
gotta</w> 1
advis 1
begins</w> 1
mass 1
descri 1
block 1
kim 1
david 1
songs</w> 1
memorial</w> 1
features</w> 1
sustain 1
'.</w> 1
grab</w> 1
jose 1
va 1
conserv 1
sets</w> 1
manchester</w> 1
fighting</w> 1
degre 1
aga</w> 1
ind</w> 1
sleep 1
position</w> 1
hair 1
signs</w> 1
policy</w> 1
ito</w> 1
alert</w> 1
stam 1
spend</w> 1
wy 1
absolut 1
dm</w> 1
animal</w> 1
myster 1
successful</w> 1
problems</w> 1
robo 1
kay 1
garden 1
pd</w> 1
mayor</w> 1
dale</w> 1
tol 1
offers</w> 1
visiting</w> 1
friendly</w> 1
trees</w> 1
officer</w> 1
account</w> 1
kevin</w> 1
ðŁĳį 1
giant</w> 1
continu 1
consu 1
tract</w> 1
nfl</w> 1
ðŁĺĬ 1
hq</w> 1
bility</w> 1
aar 1
disney</w> 1
teen</w> 1
oned</w> 1
white 1
trailer</w> 1
dedic 1
alone</w> 1
absolutely</w> 1
digital 1
william</w> 1
ination</w> 1
swa 1
ee</w> 1
entire</w> 1
german</w> 1
roll 1
hits</w> 1
cost</w> 1
stay 1
tha</w> 1
alive</w> 1
according</w> 1
cot 1
literally</w> 1
herit 1
reti 1
hahaha</w> 1
experi 1
likes</w> 1
gt</w> 1
steel</w> 1
____ 1
chair 1
christian</w> 1
tower</w> 1
difference</w> 1
md</w> 1
tress</w> 1
mid</w> 1
prince</w> 1
african</w> 1
feder 1
foot</w> 1
carri 1
served</w> 1
rice</w> 1
shall</w> 1
featured</w> 1
cker</w> 1
recru 1
poe 1
sense</w> 1
nific 1
comedy</w> 1
content</w> 1
fat 1
posted</w> 1
contribu 1
timate</w> 1
liver 1
mble</w> 1
internet</w> 1
age 1
european</w> 1
cling</w> 1
glad</w> 1
ffic 1
sco</w> 1
akes</w> 1
elle</w> 1
termin 1
tony</w> 1
pale 1
colour</w> 1
serious</w> 1
patri 1
movies</w> 1
bm 1
professional</w> 1
ado 1
alu 1
bringing</w> 1
falls</w> 1
israel</w> 1
term</w> 1
language</w> 1
brook 1
mann</w> 1
communic 1
cannot</w> 1
acti 1
phe 1
yan</w> 1
entreprene 1
turkey</w> 1
logical</w> 1
long 1
arm</w> 1
urs</w> 1
workers</w> 1
ingly</w> 1
ggs</w> 1
ric</w> 1
tual</w> 1
receive</w> 1
opens</w> 1
gear</w> 1
social 1
feet</w> 1
cking</w> 1
adver 1
finan 1
feels</w> 1
spla 1
hr 1
easter</w> 1
brain</w> 1
ãģ 1
fig 1
ledge</w> 1
nearly</w> 1
protect</w> 1
massive</w> 1
eth 1
awa 1
ðŁĺģ</w> 1
yrs</w> 1
awareness</w> 1
definitely</w> 1
kn 1
imagine</w> 1
ku</w> 1
systems</w> 1
ðŁĳı</w> 1
fas 1
lik 1
provide</w> 1
amo 1
discover</w> 1
influ 1
maker</w> 1
gaz 1
fitness</w> 1
street 1
ers 1
ted 1
wc 1
ysis</w> 1
positive</w> 1
helped</w> 1
quest</w> 1
andrew</w> 1
brad 1
bin 1
hanging</w> 1
ling 1
bright</w> 1
section</w> 1
mass</w> 1
ðŁĻĮ</w> 1
followers</w> 1
hosting</w> 1
tempor 1
flag</w> 1
ave</w> 1
letter</w> 1
kur 1
requi 1
often</w> 1
cryp 1
suff 1
âļ½ 1
russian</w> 1
treatment</w> 1
alle 1
hay 1
lan</w> 1
keeping</w> 1
holy</w> 1
powerful</w> 1
predic 1
fund</w> 1
especially</w> 1
window</w> 1
jewel 1
ily 1
ðŁĴľ</w> 1
generation</w> 1
appa 1
seriously</w> 1
od 1
ðŁĺĤðŁĺĤðŁĺĤ</w> 1
certi 1
irish</w> 1
ðŁĳĮ 1
miami</w> 1
beth</w> 1
vity</w> 1
secu 1
chef</w> 1
crime</w> 1
graphy</w> 1
max 1
artists</w> 1
revolu 1
guard</w> 1
speech</w> 1
uc 1
updates</w> 1
faces</w> 1
stant</w> 1
changed</w> 1
reports</w> 1
lower</w> 1
pear 1
nc</w> 1
kil 1
looked</w> 1
speaker</w> 1
sf</w> 1
respect</w> 1
okay</w> 1
ocean</w> 1
sitting</w> 1
architecture</w> 1
trail</w> 1
seat</w> 1
ira 1
leg</w> 1
japanese</w> 1
dam</w> 1
ular</w> 1
swim 1
politics</w> 1
financial</w> 1
old 1
mouth</w> 1
attemp 1
destin 1
fishing</w> 1
attention</w> 1
mem 1
changes</w> 1
decided</w> 1
religi 1
gin</w> 1
cav 1
zz</w> 1
adam</w> 1
mac</w> 1
write</w> 1
begin</w> 1
scul 1
alter 1
iss</w> 1
athon</w> 1
images</w> 1
moo 1
joined</w> 1
ðŁĺī</w> 1
âŀ¡ï¸ı</w> 1
passed</w> 1
musli 1
hir 1
largest</w> 1
camer 1
comic</w> 1
ghted</w> 1
rugby</w> 1
burgh</w> 1
gging</w> 1
testing</w> 1
prepar 1
laugh 1
aled</w> 1
improve</w> 1
believ 1
advice</w> 1
shares</w> 1
heart 1
turning</w> 1
sb</w> 1
tel 1
cafe</w> 1
nes</w> 1
daniel</w> 1
patter 1
tz</w> 1
sett 1
park 1
cand 1
stick</w> 1
happens</w> 1
brian</w> 1
newest</w> 1
epic</w> 1
ador 1
kies</w> 1
warning</w> 1
animals</w> 1
custom</w> 1
arc 1
dian</w> 1
gold 1
core</w> 1
tf</w> 1
city 1
pants</w> 1
reality</w> 1
confi 1
inju 1
fox 1
guil 1
knew</w> 1
âĺº 1
correc 1
itude</w> 1
dden</w> 1
.#</w> 1
reduc 1
pass 1
fon 1
ya 1
owner</w> 1
returns</w> 1
nc 1
east 1
apol 1
insur 1
tho</w> 1
sim 1
junior</w> 1
bee</w> 1
angel 1
attle</w> 1
electric</w> 1
horror</w> 1
crash</w> 1
eye 1
path</w> 1
southern</w> 1
employe 1
geo 1
tan</w> 1
haz 1
rally</w> 1
ðŁı» 1
property</w> 1
wasn</w> 1
enjoyed</w> 1
grey</w> 1
gas 1
brew 1
northern</w> 1
holding</w> 1
gp</w> 1
take 1
chart</w> 1
lyn</w> 1
drama</w> 1
zo</w> 1
paid</w> 1
throwback</w> 1
cup 1
discussion</w> 1
downtown</w> 1
will 1
lew 1
bis 1
tary</w> 1
bread</w> 1
upon</w> 1
rate</w> 1
teachers</w> 1
itation</w> 1
anced</w> 1
cycle</w> 1
choose</w> 1
dc 1
iran</w> 1
cow 1
dave</w> 1
raise</w> 1
princess</w> 1
faith</w> 1
-></w> 1
industri 1
spain</w> 1
guitar</w> 1
facts</w> 1
mn 1
spen 1
courte 1
gott 1
projects</w> 1
audi 1
osc 1
peter 1
sand</w> 1
interest</w> 1
happiness</w> 1
venue</w> 1
soldi 1
surprise</w> 1
potential</w> 1
perio 1
customer</w> 1
ii 1
gni 1
manufac 1
eco 1
broken</w> 1
singer</w> 1
vels</w> 1
wales</w> 1
hus 1
inj 1
four 1
talent</w> 1
dying</w> 1
matthe 1
film 1
joining</w> 1
sell</w> 1
jar 1
lmao</w> 1
surger 1
bbc 1
sources</w> 1
austin</w> 1
nik 1
charles</w> 1
fam</w> 1
princi 1
angel</w> 1
cash</w> 1
lot 1
ored</w> 1
plays</w> 1
plate</w> 1
done 1
memory</w> 1
brings</w> 1
nba</w> 1
solutions</w> 1
teaching</w> 1
grace</w> 1
circu 1
helps</w> 1
founder</w> 1
mary 1
explore</w> 1
decor 1
parts</w> 1
cho</w> 1
integr 1
hau 1
ises</w> 1
putting</w> 1
iner</w> 1
rit 1
vy</w> 1
michel 1
blues</w> 1
everyday</w> 1
forms</w> 1
bio</w> 1
year 1
pin</w> 1
tter</w> 1
spring 1
))</w> 1
pot</w> 1
aling</w> 1
performing</w> 1
shan 1
planet</w> 1
musical</w> 1
heads</w> 1
italian</w> 1
strugg 1
âĢįâĻ 1
wings</w> 1
pump 1
hh</w> 1
trou 1
aid</w> 1
prime</w> 1
earth 1
paint</w> 1
mont 1
amy</w> 1
bbc</w> 1
fabulous</w> 1
fruit</w> 1
android</w> 1
bourne</w> 1
ceremony</w> 1
ential</w> 1
?? 1
debate</w> 1
oning</w> 1
draft</w> 1
solar</w> 1
tx</w> 1
jam</w> 1
corn 1
!!!!!</w> 1
broo 1
milk</w> 1
posed</w> 1
ohi 1
movement</w> 1
bren 1
partner 1
pg</w> 1
ette</w> 1
aries</w> 1
shout</w> 1
ng</w> 1
leaving</w> 1
tells</w> 1
sens 1
taste</w> 1
kelly</w> 1
worl 1
gym</w> 1
rich 1
egy 1
pid</w> 1
mas 1
âĤ 1
courtesy</w> 1
frank</w> 1
increase</w> 1
written</w> 1
ppers</w> 1
rel</w> 1
hai</w> 1
sas</w> 1
sound 1
tti</w> 1
wich</w> 1
river 1
..."</w> 1
ag</w> 1
fellow</w> 1
rome</w> 1
small 1
gency</w> 1
ican</w> 1
luxury</w> 1
proof</w> 1
met 1
wildlife</w> 1
moments</w> 1
rather</w> 1
corner</w> 1
compe 1
canadian</w> 1
likely</w> 1
therapy</w> 1
liam 1
economic</w> 1
indie 1
route</w> 1
fight 1
hope 1
setting</w> 1
antly</w> 1
cross 1
fantasy</w> 1
dee 1
sketch</w> 1
compli 1
ymi</w> 1
rules</w> 1
engineering</w> 1
figure</w> 1
row 1
.,</w> 1
fw</w> 1
sydney</w> 1
wou 1
tation</w> 1
drew</w> 1
uses</w> 1
there 1
spread</w> 1
structure</w> 1
patrick</w> 1
apparently</w> 1
ros 1
hills</w> 1
wwe</w> 1
anny</w> 1
commission</w> 1
div 1
fying</w> 1
consul 1
analysis</w> 1
exi 1
tennis</w> 1
vehicle</w> 1
ðŁĺŃðŁĺŃ 1
ass</w> 1
highly</w> 1
opened</w> 1
bann 1
ðŁĴĻ 1
mph</w> 1
wishing</w> 1
vor</w> 1
fif 1
giveaway</w> 1
rr 1
ray 1
jess 1
gat 1
icymi</w> 1
xit</w> 1
highest</w> 1
york 1
pie</w> 1
involved</w> 1
higher</w> 1
rie</w> 1
malay 1
intelli 1
despite</w> 1
chee 1
sarah</w> 1
bean</w> 1
recogni 1
arsen 1
talented</w> 1
passion</w> 1
ich 1
abc</w> 1
leads</w> 1
disease</w> 1
vis</w> 1
sec</w> 1
presenting</w> 1
milli 1
hole</w> 1
shots</w> 1
depart 1
surgery</w> 1
govt</w> 1
bin</w> 1
dual</w> 1
evi 1
longer</w> 1
evol 1
screen 1
portrait</w> 1
etc</w> 1
lose</w> 1
chat 1
pen</w> 1
pi</w> 1
oma</w> 1
sick</w> 1
erc 1
companies</w> 1
entry</w> 1
plane</w> 1
gry</w> 1
vene 1
liverpool</w> 1
premiere</w> 1
shared</w> 1
ared</w> 1
films</w> 1
ira</w> 1
holidays</w> 1
cricket</w> 1
ician</w> 1
ving 1
.)</w> 1
ultimate</w> 1
division</w> 1
conduc 1
sept</w> 1
forces</w> 1
mont</w> 1
smart 1
disapp 1
sunshine</w> 1
ind 1
bless</w> 1
made 1
colors</w> 1
frank 1
iron</w> 1
bottle</w> 1
sgo 1
mood</w> 1
jason</w> 1
eric</w> 1
birth</w> 1
teen 1
response</w> 1
target</w> 1
statement</w> 1
fear</w> 1
thel 1
alum 1
arab 1
blin</w> 1
direction</w> 1
steps</w> 1
erial</w> 1
worked</w> 1
atl 1
ðŁĴķ 1
felt</w> 1
poli</w> 1
scenes</w> 1
homes</w> 1
bell 1
eat 1
ateful</w> 1
tin</w> 1
lace</w> 1
folks</w> 1
pse</w> 1
ann</w> 1
wisdom</w> 1
fav</w> 1
butter 1
sr</w> 1
areas</w> 1
smoo 1
biz</w> 1
dges</w> 1
appo 1
more 1
them 1
effect</w> 1
windows</w> 1
sunny</w> 1
capital</w> 1
totally</w> 1
cities</w> 1
grant</w> 1
mbers</w> 1
slow</w> 1
autu 1
ilities</w> 1
wro 1
rising</w> 1
stics</w> 1
violence</w> 1
igh</w> 1
quot 1
hit 1
tc</w> 1
heritage</w> 1
buff 1
nes 1
zar 1
dential</w> 1
exac 1
edge</w> 1
deep 1
arena</w> 1
became</w> 1
benefits</w> 1
marks</w> 1
mber 1
az</w> 1
ames</w> 1
preci 1
dragon</w> 1
reg 1
dings</w> 1
dos</w> 1
ðŁĴª 1
nel 1
sity</w> 1
meal</w> 1
dist 1
legend 1
purchase</w> 1
pical</w> 1
stick 1
fat</w> 1
duba 1
profess 1
carto 1
prof</w> 1
countries</w> 1
responsi 1
sequ 1
fab</w> 1
tribute</w> 1
honored</w> 1
practic 1
purple</w> 1
anton 1
pared</w> 1
tough</w> 1
summer 1
environment</w> 1
sons</w> 1
ðŁĻı</w> 1
mps</w> 1
gies</w> 1
heroes</w> 1
telling</w> 1
henry</w> 1
fen 1
knowledge</w> 1
Ģï¸ı</w> 1
fr</w> 1
neg 1
ure 1
acking</w> 1
hearts</w> 1
soo 1
hollywood</w> 1
jump 1
sauce</w> 1
schedule</w> 1
turn 1
yoga</w> 1
creating</w> 1
cket</w> 1
creek</w> 1
âŃ 1
customers</w> 1
madri 1
gul 1
assemb 1
mount</w> 1
cell</w> 1
top 1
stal</w> 1
davis</w> 1
twi 1
sign 1
premier</w> 1
itions</w> 1
hearing</w> 1
unk</w> 1
patients</w> 1
appear 1
heaven</w> 1
alty</w> 1
doctor</w> 1
ae 1
platform</w> 1
jeff</w> 1
ðŁĵ·</w> 1
regional</w> 1
bid</w> 1
boxing</w> 1
exten 1
ority</w> 1
aw</w> 1
wise</w> 1
ille</w> 1
several</w> 1
bie 1
situ 1
syria</w> 1
âľħ</w> 1
reminder</w> 1
entertain 1
lion</w> 1
partners</w> 1
inn</w> 1
phar 1
fau 1
pls</w> 1
expected</w> 1
sugar</w> 1
decision</w> 1
sb 1
chron 1
association</w> 1
leaves</w> 1
visited</w> 1
shap 1
ðŁĴĸ</w> 1
further</w> 1
hann 1
wi</w> 1
runs</w> 1
ler 1
funding</w> 1
filled</w> 1
......</w> 1
tiny</w> 1
hang</w> 1
org</w> 1
cool 1
semin 1
ðŁıĨ</w> 1
spons 1
navy</w> 1
saint</w> 1
drug</w> 1
dal</w> 1
roun 1
covered</w> 1
traditional</w> 1
investment</w> 1
dete 1
alism</w> 1
flow</w> 1
nis 1
sunrise</w> 1
feat</w> 1
fted</w> 1
weird</w> 1
jere 1
vegan</w> 1
medicine</w> 1
ano 1
accu 1
delivery</w> 1
temple</w> 1
changing</w> 1
wilson</w> 1
philipp 1
refe 1
nd 1
iser</w> 1
gay</w> 1
rand 1
atives</w> 1
tely</w> 1
pand 1
intellig 1
gare 1
ambas 1
demon 1
committee</w> 1
strategy</w> 1
refuge 1
budget</w> 1
protec 1
pier 1
express</w> 1
nomin 1
economy</w> 1
allow 1
icon</w> 1
galax 1
oh 1
indivi 1
demand</w> 1
virgin 1
luke</w> 1
alists</w> 1
mani 1
smi 1
judge</w> 1
enty</w> 1
michi 1
result</w> 1
amed</w> 1
speaks</w> 1
',</w> 1
houston</w> 1
shin 1
bing</w> 1
fly 1
chem 1
auto</w> 1
vas 1
get 1
arm 1
thanks 1
din</w> 1
gang</w> 1
xx 1
sion 1
located</w> 1
pl</w> 1
josh</w> 1
info 1
joins</w> 1
adverti 1
otd</w> 1
eld</w> 1
sie</w> 1
reasons</w> 1
vent</w> 1
ðŁĩºðŁĩ¸</w> 1
âł 1
conversation</w> 1
studi 1
ðŁĶ¥ðŁĶ¥ 1
gos</w> 1
sounds</w> 1
unit</w> 1
musc 1
gel</w> 1
acked</w> 1
paci 1
cos</w> 1
dere 1
uu 1
ao</w> 1
lam</w> 1
inspiring</w> 1
arms</w> 1
tware</w> 1
matters</w> 1
addic 1
dude</w> 1
ext 1
crisis</w> 1
bath</w> 1
meet 1
singh</w> 1
expect</w> 1
delhi</w> 1
rescue</w> 1
worst</w> 1
aug</w> 1
shipping</w> 1
serving</w> 1
sto</w> 1
dark 1
aces</w> 1
historic</w> 1
landscape</w> 1
designer</w> 1
billion</w> 1
grateful</w> 1
wake</w> 1
eve 1
miller</w> 1
housing</w> 1
dynam 1
isco</w> 1
beha 1
shop 1
prou 1
eas 1
asia</w> 1
eding</w> 1
kon 1
department</w> 1
awar 1
marine</w> 1
inci 1
photographer</w> 1
tape</w> 1
logo</w> 1
rings</w> 1
dit 1
---- 1
vinyl</w> 1
wc</w> 1
voting</w> 1
seven</w> 1
ambassad 1
dallas</w> 1
tu</w> 1
comment</w> 1
kra 1
bles</w> 1
wag 1
ud</w> 1
audio</w> 1
strike</w> 1
official 1
ots</w> 1
metho 1
tools</w> 1
radi 1
alan</w> 1
hunt</w> 1
watched</w> 1
ake</w> 1
fake</w> 1
drinking</w> 1
merry</w> 1
ml</w> 1
bday</w> 1
rio</w> 1
nike</w> 1
cant</w> 1
repe 1
costu 1
murder</w> 1
akers</w> 1
chers</w> 1
outs</w> 1
beginning</w> 1
sos</w> 1
ades</w> 1
nin 1
notes</w> 1
wrote</w> 1
solo</w> 1
ci</w> 1
lighting</w> 1
urban</w> 1
brexit</w> 1
attend</w> 1
shirts</w> 1
playo 1
actress</w> 1
plic 1
standard</w> 1
quotes</w> 1
parade</w> 1
ancient</w> 1
Â©</w> 1
turing</w> 1
ree</w> 1
primary</w> 1
flash</w> 1
citiz 1
mates</w> 1
stein</w> 1
zi</w> 1
clinton</w> 1
skin 1
gene 1
hum 1
gar</w> 1
tle</w> 1
yi 1
focu 1
dean</w> 1
plants</w> 1
cyber 1
bu</w> 1
ome</w> 1
hop</w> 1
address</w> 1
tix</w> 1
gifts</w> 1
relationship</w> 1
subscri 1
feed</w> 1
exactly</w> 1
hawks</w> 1
exo</w> 1
stress</w> 1
sn</w> 1
arrested</w> 1
ane 1
software</w> 1
zero</w> 1
theme</w> 1
mumb 1
immigr 1
mia</w> 1
makeup</w> 1
pleasure</w> 1
univers 1
harb 1
engine</w> 1
aper</w> 1
rin 1
bra</w> 1
institute</w> 1
leather</w> 1
alth</w> 1
singing</w> 1
cos 1
ghty</w> 1
meas 1
stic 1
side 1
insurance</w> 1
cot</w> 1
pitch</w> 1
mountains</w> 1
crimin 1
supre 1
valentine</w> 1
ater</w> 1
wouldn</w> 1
scale</w> 1
related</w> 1
regar 1
startup</w> 1
packed</w> 1
mike 1
weekly</w> 1
pts</w> 1
count</w> 1
har</w> 1
gotten</w> 1
mind 1
berlin</w> 1
conditions</w> 1
switch</w> 1
corn</w> 1
save 1
gli 1
emergency</w> 1
tuned</w> 1
stock 1
discussing</w> 1
everybody</w> 1
sday 1
whether</w> 1
wrestling</w> 1
eces</w> 1
gender</w> 1
chen 1
ðŁĳĢ</w> 1
madrid</w> 1
marathon</w> 1
egg</w> 1
ier</w> 1
thx</w> 1
asking</w> 1
korea</w> 1
wolf</w> 1
aya</w> 1
gm</w> 1
gau 1
atory</w> 1
vr</w> 1
grass</w> 1
killing</w> 1
bble</w> 1
uro</w> 1
uni</w> 1
eth</w> 1
shore</w> 1
then 1
reale 1
bottom</w> 1
exerc 1
kar</w> 1
ories</w> 1
adri 1
sands</w> 1
sex</w> 1
.'</w> 1
volunteers</w> 1
perform</w> 1
parliam 1
include</w> 1
delighted</w> 1
executive</w> 1
fuel</w> 1
kiss</w> 1
ãħ 1
charge</w> 1
hu</w> 1
cakes</w> 1
vet</w> 1
glu 1
agree</w> 1
prices</w> 1
nau 1
hl</w> 1
gru 1
raj 1
strength</w> 1
bic 1
spending</w> 1
ales</w> 1
aven 1
blast</w> 1
:(</w> 1
yof 1
normal</w> 1
six 1
quick 1
sea 1
daw 1
meets</w> 1
lovers</w> 1
updated</w> 1
potat 1
completed</w> 1
cook</w> 1
opportunities</w> 1
pure</w> 1
organic</w> 1
temper 1
cam</w> 1
avoid</w> 1
parking</w> 1
dubai</w> 1
ando</w> 1
distri 1
toy</w> 1
completely</w> 1
donald 1
trial</w> 1
bass</w> 1
boun 1
background</w> 1
vas</w> 1
marvel</w> 1
lum</w> 1
rus</w> 1
tool</w> 1
commissi 1
throwback 1
finding</w> 1
islam 1
!?</w> 1
stop 1
evil</w> 1
oral</w> 1
residents</w> 1
identi 1
oak 1
ðŁİ¶</w> 1
lil 1
spanish</w> 1
chapter</w> 1
stopped</w> 1
direct</w> 1
hosted</w> 1
picked</w> 1
labour</w> 1
lewis</w> 1
defense</w> 1
à® 1
healthcare</w> 1
whis 1
math</w> 1
peak</w> 1
raised</w> 1
fix</w> 1
bull</w> 1
thir 1
chelsea</w> 1
folk</w> 1
tre</w> 1
candi 1
paul 1
either</w> 1
adam 1
poetry</w> 1
jewelry</w> 1
ðŁ¦ 1
pray</w> 1
Ø§ 1
gc</w> 1
oz</w> 1
wishes</w> 1
foreign</w> 1
sung</w> 1
learned</w> 1
ene</w> 1
ning 1
michael 1
illustration</w> 1
legendary</w> 1
wav 1
bau 1
ðŁļ¨</w> 1
calend 1
streets</w> 1
âĨ 1
monster</w> 1
buck 1
gr</w> 1
school 1
bath 1
waste</w> 1
neck 1
hawa 1
beach 1
replac 1
ject</w> 1
oner</w> 1
factory</w> 1
count 1
ðŁĵ¸</w> 1
morgan</w> 1
dering</w> 1
sean</w> 1
stephen</w> 1
dep 1
novel</w> 1
videos</w> 1
ical 1
pressure</w> 1
arsenal</w> 1
expre 1
irs</w> 1
trending</w> 1
ssa</w> 1
flash 1
resear 1
through 1
professor</w> 1
sculp 1
tos</w> 1
gged</w> 1
mma</w> 1
bee 1
ape 1
hunter</w> 1
ami 1
hei 1
plastic</w> 1
bucks</w> 1
universe</w> 1
legen 1
nigeria</w> 1
pleased</w> 1
ris 1
thinks</w> 1
autumn</w> 1
ids</w> 1
dis</w> 1
anthony</w> 1
ðŁı½</w> 1
aked</w> 1
glasses</w> 1
finance</w> 1
zer 1
kas 1
contract</w> 1
numbers</w> 1
shaw 1
partnership</w> 1
til 1
launched</w> 1
sal</w> 1
victoria</w> 1
theater</w> 1
usual</w> 1
names</w> 1
period</w> 1
eliza 1
ith 1
barcel 1
rocks</w> 1
bags</w> 1
mate 1
distribu 1
jon</w> 1
diffic 1
alized</w> 1
curren 1
scored</w> 1
bha 1
dublin</w> 1
rose 1
inted</w> 1
solid</w> 1
behavi 1
walker</w> 1
simply</w> 1
gardens</w> 1
headed</w> 1
ini 1
ohio</w> 1
weap 1
fo</w> 1
glen 1
estate</w> 1
random</w> 1
thunder 1
thru</w> 1
kill 1
jacket</w> 1
iti</w> 1
entertainment</w> 1
thanksgiving</w> 1
ental</w> 1
encoura 1
elo 1
ather 1
tank</w> 1
highlights</w> 1
fting</w> 1
rule</w> 1
models</w> 1
border</w> 1
bjp</w> 1
husband</w> 1
indone 1
kenya</w> 1
bears</w> 1
alo</w> 1
ninten 1
pix 1
stro</w> 1
orders</w> 1
salad</w> 1
roads</w> 1
nor</w> 1
lation</w> 1
sophi 1
ðŁı¼ 1
pieces</w> 1
bone</w> 1
mins</w> 1
includes</w> 1
nutr 1
phil</w> 1
sent 1
fundra 1
gain</w> 1
borough</w> 1
nad 1
monday 1
activity</w> 1
items</w> 1
becoming</w> 1
kenne 1
detro 1
cardi 1
guests</w> 1
ux</w> 1
worldwide</w> 1
severe</w> 1
news 1
thankful</w> 1
fiction</w> 1
vege 1
mall</w> 1
sian</w> 1
eral</w> 1
injury</w> 1
lee 1
menu</w> 1
dancing</w> 1
scotti 1
example</w> 1
(#</w> 1
nai 1
studios</w> 1
bai 1
ðŁĴĽ</w> 1
jav 1
diamond</w> 1
vince</w> 1
rick 1
protection</w> 1
lincol 1
champs</w> 1
approach</w> 1
dar</w> 1
mile</w> 1
clouds</w> 1
jeff 1
infin 1
lers</w> 1
ples</w> 1
peace 1
gop</w> 1
âĻ¡</w> 1
techn 1
stra</w> 1
average</w> 1
effort</w> 1
introducing</w> 1
diversity</w> 1
australian</w> 1
amp</w> 1
boost</w> 1
ske 1
patient</w> 1
appreciate</w> 1
icians</w> 1
pur</w> 1
fell</w> 1
woods</w> 1
illustr 1
ðŁĸ 1
agency</w> 1
actions</w> 1
britain</w> 1
underway</w> 1
seattle</w> 1
eland</w> 1
ago 1
fill</w> 1
streaming</w> 1
protest</w> 1
challenges</w> 1
kyo</w> 1
etsy</w> 1
cooking</w> 1
expert</w> 1
russ 1
rainbow</w> 1
commercial</w> 1
spin 1
beats</w> 1
cry</w> 1
valu 1
eli</w> 1
throw</w> 1
grams</w> 1
levels</w> 1
michigan</w> 1
cad 1
adorable</w> 1
constitu 1
ws 1
pub</w> 1
midnight</w> 1
that 1
netfli 1
brazil</w> 1
diego</w> 1
regular</w> 1
joy 1
âĤ¬</w> 1
liqu 1
eastern</w> 1
kni 1
flat</w> 1
np</w> 1
brown 1
wer 1
sey 1
tters</w> 1
acting</w> 1
vanc 1
cycling</w> 1
programme</w> 1
raw</w> 1
complex</w> 1
tattoo</w> 1
throwbackthursday</w> 1
sessions</w> 1
rooms</w> 1
sight</w> 1
species</w> 1
bomb</w> 1
laugh</w> 1
keeps</w> 1
moon 1
officers</w> 1
conver 1
tr</w> 1
hash 1
tack 1
rious</w> 1
adap 1
aj</w> 1
recogn 1
expo</w> 1
sugge 1
confirmed</w> 1
rolling</w> 1
dressing</w> 1
ict</w> 1
friday 1
phones</w> 1
ridge</w> 1
concept</w> 1
roy</w> 1
keys</w> 1
effor 1
cate 1
kne 1
even 1
lay</w> 1
communities</w> 1
mod 1
naz 1
everywhere</w> 1
alab 1
bitcoin</w> 1
banks</w> 1
outdoor</w> 1
federal</w> 1
stores</w> 1
hp</w> 1
cal</w> 1
mely</w> 1
signific 1
bear 1
republic 1
closer</w> 1
allah</w> 1
pick 1
xd</w> 1
palace</w> 1
chill</w> 1
bam 1
erous</w> 1
una</w> 1
allen</w> 1
outstanding</w> 1
olympic</w> 1
supply</w> 1
figu 1
vau 1
lp</w> 1
charlie</w> 1
unes</w> 1
>>></w> 1
legends</w> 1
icial</w> 1
coast 1
benefit</w> 1
multi</w> 1
fits</w> 1
farmers</w> 1
amount</w> 1
sisters</w> 1
harve 1
honey</w> 1
queen 1
bers</w> 1
plann 1
âŃĲ 1
mu</w> 1
barcelona</w> 1
alber 1
status</w> 1
remain</w> 1
extra 1
candy</w> 1
vious</w> 1
âľĮ 1
ov 1
warriors</w> 1
--></w> 1
jump</w> 1
amar 1
xmas</w> 1
studies</w> 1
iors</w> 1
kor 1
donate</w> 1
prep 1
fish 1
ima</w> 1
painted</w> 1
admini 1
cosplay</w> 1
sports 1
drops</w> 1
fighter</w> 1
evidence</w> 1
ðŁĴª</w> 1
lake 1
rob</w> 1
cinema</w> 1
profile</w> 1
Ã± 1
stands</w> 1
legacy</w> 1
shape</w> 1
roof</w> 1
civil</w> 1
ians</w> 1
syl 1
sham 1
voted</w> 1
retail</w> 1
philli 1
listed</w> 1
duty</w> 1
nb 1
thes</w> 1
fare</w> 1
auction</w> 1
fficial</w> 1
storms</w> 1
dp</w> 1
loun 1
shops</w> 1
aly 1
anime</w> 1
multiple</w> 1
ðŁĺįðŁĺį</w> 1
psycho 1
jean</w> 1
apart 1
candidate</w> 1
ggy</w> 1
conf</w> 1
joseph</w> 1
wick</w> 1
meat</w> 1
frame</w> 1
cl</w> 1
forgot</w> 1
phy 1
fing 1
lied</w> 1
rep</w> 1
seed</w> 1
fall 1
ufc</w> 1
nut</w> 1
lind 1
mode</w> 1
fields</w> 1
ence 1
sley</w> 1
ðŁ¤Ķ</w> 1
chill 1
followed</w> 1
announces</w> 1
corru 1
trophy</w> 1
themselves</w> 1
acle</w> 1
aldu 1
kong</w> 1
lon</w> 1
sv 1
broke</w> 1
anderson</w> 1
tai 1
story 1
temporary</w> 1
activities</w> 1
kati 1
ariz 1
crystal</w> 1
spoke</w> 1
extremely</w> 1
trading</w> 1
ðŁĴļ</w> 1
Ã¼ 1
inch</w> 1
edin 1
outfit</w> 1
equip 1
madi 1
formed</w> 1
beef</w> 1
pop 1
tiger</w> 1
thisday</w> 1
tired</w> 1
neighb 1
retro 1
isa</w> 1
unt</w> 1
tas 1
kansas</w> 1
dest 1
seconds</w> 1
tay 1
hurric 1
ou</w> 1
galaxy</w> 1
daddy</w> 1
brow 1
burger</w> 1
enced</w> 1
desk</w> 1
accur 1
secretary</w> 1
elite</w> 1
kab 1
chin 1
tourism</w> 1
buddy</w> 1
icide</w> 1
dressed</w> 1
ud 1
vacation</w> 1
cheers</w> 1
comfor 1
characters</w> 1
jet</w> 1
buying</w> 1
lins</w> 1
nap 1
realestate</w> 1
lie 1
afc</w> 1
iii</w> 1
fame</w> 1
nr 1
bat</w> 1
agent</w> 1
makers</w> 1
âĢ¼ 1
sector</w> 1
opti 1
leon 1
diet</w> 1
prayer</w> 1
hip</w> 1
mir</w> 1
lex 1
bry 1
ana 1
passing</w> 1
wen 1
recovery</w> 1
aki</w> 1
popul 1
resort</w> 1
maria</w> 1
stuck</w> 1
reads</w> 1
tier</w> 1
perfec 1
netflix</w> 1
poo 1
champ</w> 1
oc</w> 1
reduce</w> 1
wered</w> 1
comments</w> 1
claim</w> 1
accident</w> 1
sag 1
hack 1
salt</w> 1
kinda</w> 1
killer</w> 1
ios</w> 1
zy 1
exchange</w> 1
lecture</w> 1
enger</w> 1
icking</w> 1
tau 1
reveals</w> 1
prison</w> 1
zom 1
ghan</w> 1
ul</w> 1
journal</w> 1
iot</w> 1
trin 1
jona 1
governor</w> 1
cape</w> 1
quarter</w> 1
spective</w> 1
impressive</w> 1
babies</w> 1
tx 1
mill</w> 1
oy 1
harri 1
joint</w> 1
sue</w> 1
collaboration</w> 1
trend</w> 1
revolution</w> 1
renew 1
alumni</w> 1
gett 1
shell</w> 1
sunday 1
entu 1
nic</w> 1
donaldtrump</w> 1
blockchain</w> 1
pacific</w> 1
explains</w> 1
spy</w> 1
advoc 1
paradi 1
tof 1
starring</w> 1
pav 1
feed 1
brac 1
smoke</w> 1
hamp 1
yam 1
tokyo</w> 1
simon</w> 1
dh 1
effici 1
physical</w> 1
nj</w> 1
elli</w> 1
slow 1
graduate</w> 1
americans</w> 1
tify</w> 1
fred</w> 1
apore</w> 1
finds</w> 1
robin 1
wet</w> 1
notice</w> 1
semi</w> 1
unve 1
kom 1
pilot</w> 1
screening</w> 1
daily 1
ðŁĴĹ</w> 1
royal 1
spa</w> 1
votes</w> 1
nag 1
whate 1
attending</w> 1
experim 1
addition</w> 1
kate</w> 1
stol</w> 1
mali 1
foot 1
christ</w> 1
chan</w> 1
dee</w> 1
licen 1
global 1
moore</w> 1
tia</w> 1
brigh 1
mystery</w> 1
yay</w> 1
âĿ¤ï¸ıâĿ¤ï¸ı 1
creati 1
mechan 1
clock</w> 1
dic</w> 1
âĢĶ 1
pper 1
alph 1
throughout</w> 1
allow</w> 1
resources</w> 1
selection</w> 1
hamil 1
bbq</w> 1
aaaa 1
virginia</w> 1
disney 1
eng</w> 1
sored</w> 1
drinks</w> 1
fancy</w> 1
consider</w> 1
enda</w> 1
jane</w> 1
handmade</w> 1
dul 1
ontari 1
ius</w> 1
sville</w> 1
colorado</w> 1
whatever</w> 1
wheel</w> 1
promise</w> 1
never 1
designs</w> 1
ably</w> 1
sexual</w> 1
vancou 1
ati</w> 1
convention</w> 1
cultural</w> 1
singapore</w> 1
promo</w> 1
loaded</w> 1
glasgo 1
ppl</w> 1
noo 1
kee</w> 1
stem</w> 1
mention</w> 1
ido 1
cruise</w> 1
riding</w> 1
becomes</w> 1
bey</w> 1
âļ½ï¸ı</w> 1
twin</w> 1
dedicated</w> 1
nash 1
desi 1
workout</w> 1
jenni 1
iv 1
groups</w> 1
relax 1
phoeni 1
lift</w> 1
mixed</w> 1
mck 1
pc 1
must 1
metro</w> 1
cies</w> 1
yar 1
aim 1
anger</w> 1
ie 1
recy 1
married</w> 1
dropped</w> 1
engag 1
lest</w> 1
ambassador</w> 1
oph 1
des 1
wick 1
assistant</w> 1
natur 1
fail</w> 1
ltd</w> 1
short 1
kap 1
shaw</w> 1
bigger</w> 1
remains</w> 1
critical</w> 1
survey</w> 1
coverage</w> 1
erson</w> 1
wind 1
nb</w> 1
billy</w> 1
letes</w> 1
acts</w> 1
jimmy</w> 1
atlan 1
aland</w> 1
tc 1
importance</w> 1
damage</w> 1
fg</w> 1
storage</w> 1
twt</w> 1
bond</w> 1
balance</w> 1
crying</w> 1
puppy</w> 1
vote 1
push</w> 1
ðŁĴľ 1
poly 1
mel</w> 1
london 1
terrori 1
effective</w> 1
corporate</w> 1
atlanta</w> 1
jaco 1
nasa</w> 1
greek</w> 1
senate</w> 1
ish 1
eva</w> 1
intelligence</w> 1
efforts</w> 1
alco 1
kun 1
hall 1
diag 1
claims</w> 1
first 1
hb 1
bae</w> 1
vul 1
pull</w> 1
Â°</w> 1
separ 1
speed 1
victi 1
onthisday</w> 1
audience</w> 1
rates</w> 1
teach</w> 1
filming</w> 1
bush</w> 1
song 1
yum 1
brun 1
raine</w> 1
awa</w> 1
parks</w> 1
ðĿ 1
rabb 1
rach 1
raid</w> 1
reached</w> 1
rail</w> 1
moves</w> 1
selected</w> 1
fri</w> 1
raising</w> 1
omy</w> 1
stones</w> 1
suk</w> 1
francisco</w> 1
cases</w> 1
capit 1
confu 1
wtf</w> 1
poke 1
equipment</w> 1
greg 1
essential</w> 1
offering</w> 1
nex 1
pies</w> 1
bec 1
creation</w> 1
chairman</w> 1
crown</w> 1
wal</w> 1
johnny</w> 1
shift</w> 1
neck</w> 1
bang</w> 1
bird 1
ðŁĺı</w> 1
duck</w> 1
reserve</w> 1
depu 1
masters</w> 1
overall</w> 1
notic 1
juice</w> 1
sneak</w> 1
cheer</w> 1
classes</w> 1
eagles</w> 1
nca 1
carpet</w> 1
civil 1
coaches</w> 1
harris</w> 1
ups</w> 1
balls</w> 1
decor</w> 1
martin 1
ros</w> 1
vice</w> 1
announcement</w> 1
whose</w> 1
tigers</w> 1
stered</w> 1
cts</w> 1
dram 1
steel 1
young 1
install 1
suppo 1
recording</w> 1
deck</w> 1
seats</w> 1
lder</w> 1
angle</w> 1
bot</w> 1
styles</w> 1
elections</w> 1
fortun 1
nab 1
butter</w> 1
arian</w> 1
kash 1
inner</w> 1
oured</w> 1
beast</w> 1
wei 1
iconic</w> 1
experts</w> 1
necess 1
beng 1
james 1
lia</w> 1
greece</w> 1
ðŁĵ· 1
ðŁĺģ 1
goodbye</w> 1
mitch 1
twice</w> 1
mumbai</w> 1
steam</w> 1
rush</w> 1
medal</w> 1
nett</w> 1
fashion 1
tar</w> 1
rs 1
saving</w> 1
ricul 1
lm 1
sleeping</w> 1
brooklyn</w> 1
miss 1
sending</w> 1
discovered</w> 1
sphere</w> 1
oftheday</w> 1
kicks</w> 1
missions</w> 1
wright</w> 1
ern 1
ghtly</w> 1
ious</w> 1
melbourne</w> 1
startu 1
moved</w> 1
carry</w> 1
dak 1
agues</w> 1
belgi 1
ema 1
wayne</w> 1
dot</w> 1
erie</w> 1
pel</w> 1
itunes</w> 1
matthew</w> 1
nobody</w> 1
estab 1
calm</w> 1
winds</w> 1
luc 1
prepare</w> 1
trends</w> 1
exercise</w> 1
advant 1
ðŁĴ¯</w> 1
athletics</w> 1
apps</w> 1
ctions</w> 1
advance</w> 1
launches</w> 1
little 1
realdonaldtrump</w> 1
elizabeth</w> 1
carolina</w> 1
hub</w> 1
hidden</w> 1
nw</w> 1
user</w> 1
poll</w> 1
greater</w> 1
most 1
fed</w> 1
pat</w> 1
lifestyle</w> 1
sati 1
scores</w> 1
marriage</w> 1
lr</w> 1
avenue</w> 1
deserve</w> 1
rif 1
ðŁĹ 1
watch 1
championships</w> 1
gray</w> 1
enni 1
cotton</w> 1
gom 1
where 1
package</w> 1
sum 1
absolu 1
newly</w> 1
foods</w> 1
tyler</w> 1
assembly</w> 1
muslim</w> 1
bank 1
rememb 1
options</w> 1
producer</w> 1
lando</w> 1
funds</w> 1
upper</w> 1
shadow</w> 1
progre 1
cop</w> 1
inge</w> 1
legs</w> 1
detroit</w> 1
hillary</w> 1
jose</w> 1
giants</w> 1
soup</w> 1
sustainable</w> 1
tus</w> 1
clothes</w> 1
rocking</w> 1
nz</w> 1
minne 1
materi 1
bruce</w> 1
eart 1
casting</w> 1
independent</w> 1
thousands</w> 1
tah</w> 1
decl 1
veterans</w> 1
lions</w> 1
wrap</w> 1
âĢ¦ 1
dess 1
bling</w> 1
stine</w> 1
eggs</w> 1
oon</w> 1
closing</w> 1
zay 1
att</w> 1
bacon</w> 1
fail 1
arizona</w> 1
depre 1
ghost</w> 1
newsp 1
wers</w> 1
vip</w> 1
liked</w> 1
ident 1
volunteer</w> 1
adult</w> 1
pupp 1
circle</w> 1
material</w> 1
degree</w> 1
grown</w> 1
boom</w> 1
calendar</w> 1
sur</w> 1
viewing</w> 1
athletes</w> 1
chand 1
rell</w> 1
asian</w> 1
entr 1
volley 1
victims</w> 1
body 1
mama</w> 1
transfer</w> 1
geek</w> 1
indic 1
saved</w> 1
mai 1
gent</w> 1
its 1
lounge</w> 1
kol 1
theory</w> 1
situation</w> 1
islands</w> 1
arth 1
zoo</w> 1
flood</w> 1
viously</w> 1
showed</w> 1
parliament</w> 1
chev 1
eline</w> 1
attrac 1
abad</w> 1
tail 1
hrs</w> 1
lus</w> 1
portu 1
gory</w> 1
provides</w> 1
toys</w> 1
death 1
infe 1
ance 1
gle 1
liam</w> 1
lover</w> 1
hud 1
dvd</w> 1
revealed</w> 1
gw 1
rement</w> 1
cathe 1
lying</w> 1
radio 1
derby</w> 1
stors</w> 1
chemi 1
hospit 1
âľ¨ 1
':</w> 1
ilove 1
lemon</w> 1
republic</w> 1
sni 1
ness 1
door 1
reaction</w> 1
pregn 1
flav 1
scholar 1
spotify</w> 1
isation</w> 1
visual</w> 1
aware</w> 1
sponsored</w> 1
joke</w> 1
lessons</w> 1
legis 1
lock 1
simil 1
ðŁĺĭ</w> 1
kind 1
lay 1
mah 1
hoping</w> 1
vancouver</w> 1
aser</w> 1
cleaning</w> 1
gala</w> 1
threat</w> 1
lap 1
ache</w> 1
romance</w> 1
expen 1
repost</w> 1
zam 1
epi 1
mirror</w> 1
oak</w> 1
adul 1
batman</w> 1
slu 1
lc</w> 1
viewed</w> 1
reviews</w> 1
dates</w> 1
indonesia</w> 1
activi 1
offen 1
leaf</w> 1
isi 1
agricul 1
costume</w> 1
sites</w> 1
spiritu 1
appearance</w> 1
iry</w> 1
stair 1
application</w> 1
spectac 1
icity</w> 1
skies</w> 1
handle</w> 1
punk</w> 1
paradise</w> 1
tn</w> 1
deal 1
providing</w> 1
doc</w> 1
receiving</w> 1
brew</w> 1
microsoft</w> 1
Ã¶ 1
ferr 1
metro 1
thail 1
yum</w> 1
carter</w> 1
Ã¡ 1
gentle 1
breaks</w> 1
cooper 1
showcase</w> 1
cutting</w> 1
egypt</w> 1
baby 1
seminar</w> 1
glori 1
sson</w> 1
fave</w> 1
rehear 1
lotte</w> 1
lady 1
alas 1
prep</w> 1
delivered</w> 1
nuclear</w> 1
iro</w> 1
engagement</w> 1
atta 1
conven 1
zan 1
glory</w> 1
holds</w> 1
businesses</w> 1
strange</w> 1
sche</w> 1
itself</w> 1
grad</w> 1
markets</w> 1
falling</w> 1
stats</w> 1
geon</w> 1
budd 1
lis 1
sheet</w> 1
thisi 1
colo 1
desert</w> 1
registration</w> 1
ign 1
explain</w> 1
interior</w> 1
laws</w> 1
writers</w> 1
springs</w> 1
kr 1
fried</w> 1
bloom 1
infra 1
ao 1
cred 1
past 1
lineup</w> 1
boo</w> 1
brea 1
boots</w> 1
celebrity</w> 1
attacks</w> 1
brook</w> 1
eves</w> 1
excu 1
cherry</w> 1
oop</w> 1
fascin 1
boyfriend</w> 1
seas 1
nine</w> 1
effects</w> 1
powered</w> 1
kha 1
ðŁĺĢ</w> 1
shout 1
condition</w> 1
ij 1
hero 1
enterpri 1
winter 1
applications</w> 1
shoe</w> 1
gel 1
battle 1
programs</w> 1
wart</w> 1
ðŁĴ¥</w> 1
rap</w> 1
hol</w> 1
dangerous</w> 1
dia 1
counter</w> 1
rics</w> 1
ior 1
knight</w> 1
coat</w> 1
emotional</w> 1
atures</w> 1
das</w> 1
wheel 1
forecast</w> 1
transport</w> 1
glasgow</w> 1
kingdom</w> 1
preparing</w> 1
immedi 1
ffin</w> 1
awarded</w> 1
printing</w> 1
roman</w> 1
fighters</w> 1
anymore</w> 1
belt</w> 1
pine</w> 1
wine 1
xi</w> 1
employees</w> 1
logies</w> 1
alled</w> 1
demo</w> 1
birthday 1
angeles</w> 1
log</w> 1
drivers</w> 1
necklace</w> 1
kath 1
sit 1
athlete</w> 1
efs</w> 1
sburg</w> 1
purpose</w> 1
resistance</w> 1
releases</w> 1
tis</w> 1
various</w> 1
deliver</w> 1
chal 1
sanc 1
oppo 1
craw 1
neuro 1
dra</w> 1
supporters</w> 1
snap</w> 1
difficult</w> 1
swear</w> 1
logist</w> 1
path 1
attempt</w> 1
à¥ 1
swimming</w> 1
steve 1
hurt</w> 1
included</w> 1
bap 1
ware 1
ðŁĴĭ</w> 1
enders</w> 1
jake</w> 1
leeds</w> 1
climb 1
lb</w> 1
imple 1
lisa</w> 1
clothing</w> 1
ðŁĺİ 1
dt</w> 1
compla 1
swing</w> 1
straw 1
vals</w> 1
kle</w> 1
users</w> 1
storm 1
cuts</w> 1
ontario</w> 1
pan</w> 1
handsome</w> 1
iow 1
argu 1
checking</w> 1
scottish</w> 1
Ķï¸ı</w> 1
sier</w> 1
emma</w> 1
pod</w> 1
pattern</w> 1
desh</w> 1
enh 1
edward</w> 1
ting 1
kh</w> 1
half 1
lincoln</w> 1
mother 1
alleg 1
rc</w> 1
volleyball</w> 1
dn</w> 1
gay 1
ally 1
leton</w> 1
grove</w> 1
loud</w> 1
advanced</w> 1
respec 1
client</w> 1
supreme</w> 1
thailand</w> 1
how 1
gig</w> 1
toi 1
dot 1
dollar</w> 1
ðŁĳĩ</w> 1
pit</w> 1
rb</w> 1
hn</w> 1
produced</w> 1
ggers</w> 1
âĨĴ</w> 1
mlb</w> 1
canvas</w> 1
fineart 1
usd</w> 1
inthe 1
pson</w> 1
actual</w> 1
sl</w> 1
tb</w> 1
ipad</w> 1
ensure</w> 1
umb 1
wd</w> 1
ska</w> 1
mars</w> 1
kend 1
feli 1
thing 1
countdown</w> 1
absolute</w> 1
rout 1
dral</w> 1
py</w> 1
injured</w> 1
mint</w> 1
hunting</w> 1
mmer</w> 1
sage</w> 1
ligh 1
acity</w> 1
expan 1
murray</w> 1
aro 1
secure</w> 1
fourth</w> 1
eagle</w> 1
relief</w> 1
stakes</w> 1
industrial</w> 1
clark</w> 1
understanding</w> 1
seem</w> 1
plenty</w> 1
silver 1
clau 1
threat 1
sail 1
produce</w> 1
abstr 1
isis</w> 1
br</w> 1
engers</w> 1
worry</w> 1
bieber</w> 1
sj 1
justin 1
realize</w> 1
kyle</w> 1
espn</w> 1
filter</w> 1
sch</w> 1
types</w> 1
gamedev</w> 1
ding 1
twitter 1
soldiers</w> 1
pom 1
carbon</w> 1
yards</w> 1
childhood</w> 1
ried</w> 1
kel</w> 1
eleph 1
tons</w> 1
keynote</w> 1
quiet</w> 1
wire 1
posting</w> 1
issa</w> 1
representing</w> 1
backs</w> 1
alexander</w> 1
celebrates</w> 1
taining</w> 1
||</w> 1
chor 1
escape</w> 1
peek</w> 1
tives</w> 1
field 1
ssie</w> 1
impac 1
sponsor</w> 1
rc 1
wedd 1
cannab 1
sides</w> 1
tracks</w> 1
compar 1
contrac 1
technical</w> 1
bible</w> 1
exploring</w> 1
share 1
trav 1
nate</w> 1
illo</w> 1
scru 1
mingham</w> 1
guns</w> 1
ofthe 1
shame</w> 1
sees</w> 1
catho 1
access 1
cel</w> 1
reported</w> 1
Â»</w> 1
mario</w> 1
pad</w> 1
hopefully</w> 1
ouse</w> 1
yon</w> 1
disappo 1
olo</w> 1
pitt 1
pac</w> 1
gap</w> 1
crush</w> 1
sg</w> 1
kle 1
gem</w> 1
empire</w> 1
dirty</w> 1
ais 1
aviation</w> 1
zealand</w> 1
facing</w> 1
highway</w> 1
danny</w> 1
spider</w> 1
otta 1
ðŁĺĦ</w> 1
wy</w> 1
colours</w> 1
infl 1
costs</w> 1
olympics</w> 1
aus</w> 1
hm</w> 1
howard</w> 1
passes</w> 1
lauren</w> 1
mush 1
opin 1
rho 1
discount</w> 1
operation</w> 1
emily</w> 1
mmm</w> 1
chamber</w> 1
dil 1
toyo 1
ship 1
samu 1
pictured</w> 1
unic 1
pol</w> 1
keeper</w> 1
cartoon</w> 1
sten 1
ignor 1
nations</w> 1
nl</w> 1
tasting</w> 1
detail</w> 1
officials</w> 1
motor</w> 1
francis</w> 1
editor</w> 1
ðŁĳĩ 1
pets</w> 1
rangers</w> 1
tg 1
rn</w> 1
wri 1
nichol 1
ise 1
spots</w> 1
anie</w> 1
check 1
triple</w> 1
kumar</w> 1
speakers</w> 1
icing</w> 1
prepared</w> 1
abuse</w> 1
friendship</w> 1
month 1
swim</w> 1
aire</w> 1
scent</w> 1
hamilton</w> 1
indian 1
jes 1
yummy</w> 1
tears</w> 1
dawn</w> 1
ized</w> 1
worlds</w> 1
ðŁķ 1
billi 1
stone 1
nhs</w> 1
basic</w> 1
por</w> 1
stle</w> 1
iron 1
older</w> 1
clevel 1
eing</w> 1
ðŁĺįðŁĺįðŁĺį</w> 1
prints</w> 1
firm</w> 1
aircraft</w> 1
finest</w> 1
develop</w> 1
aaron</w> 1
tz 1
graham</w> 1
owners</w> 1
foli 1
lesson</w> 1
ques</w> 1
babe</w> 1
craft 1
phen 1
jun</w> 1
birmingham</w> 1
vine</w> 1
ller</w> 1
ian 1
fineartamerica</w> 1
evolu 1
stab 1
imper 1
ward 1
comic 1
wiz 1
invited</w> 1
duke</w> 1
match 1
ports</w> 1
roger</w> 1
diagno 1
kept</w> 1
test 1
visu 1
rhy 1
soc</w> 1
tox 1
baker</w> 1
surface</w> 1
covers</w> 1
mans</w> 1
bits</w> 1
xbox</w> 1
ffle</w> 1
nan</w> 1
gard 1
hart</w> 1
waters</w> 1
villa</w> 1
retro</w> 1
lightning</w> 1
catholic</w> 1
democracy</w> 1
neighbor 1
penn 1
cran 1
jonathan</w> 1
laura</w> 1
vibes</w> 1
sub</w> 1
coaching</w> 1
clearly</w> 1
ukraine</w> 1
brave</w> 1
commitment</w> 1
tall</w> 1
mart</w> 1
rap 1
modi</w> 1
scott 1
bros</w> 1
shower</w> 1
ðŁı¾</w> 1
âĺºï¸ı</w> 1
cousin</w> 1
approach 1
bre</w> 1
compos 1
hilari 1
philly</w> 1
gad 1
quickly</w> 1
rian</w> 1
tm</w> 1
virtual</w> 1
houses</w> 1
kt</w> 1
phoenix</w> 1
wire</w> 1
ffy</w> 1
bunch</w> 1
ancing</w> 1
tale</w> 1
snapchat</w> 1
starter</w> 1
ht</w> 1
kicking</w> 1
apart</w> 1
thy 1
)!</w> 1
blogger</w> 1
itz</w> 1
comfort</w> 1
angels</w> 1
wash</w> 1
":</w> 1
argent 1
request</w> 1
honest 1
mighty</w> 1
bobby</w> 1
kg</w> 1
rol</w> 1
thouse</w> 1
expo 1
hc</w> 1
tables</w> 1
magical</w> 1
posts</w> 1
dem</w> 1
nw 1
orlando</w> 1
aber 1
***</w> 1
ðŁĺľ</w> 1
environmental</w> 1
transformation</w> 1
mile 1
wic 1
hiring</w> 1
maine</w> 1
boar 1
rying</w> 1
tis 1
niture</w> 1
tweeted</w> 1
antonio</w> 1
opinion</w> 1
finale</w> 1
diy</w> 1
fis 1
thin</w> 1
trouble</w> 1
lego</w> 1
files</w> 1
quart 1
spa 1
currency</w> 1
climate 1
fanart</w> 1
railway</w> 1
space 1
bands</w> 1
daniel 1
motion</w> 1
leng 1
holder</w> 1
occu 1
marie</w> 1
cathedral</w> 1
buzz 1
bies</w> 1
nascar</w> 1
bmw</w> 1
battery</w> 1
charlotte</w> 1
doctor 1
zzle</w> 1
seven 1
insan 1
ddy</w> 1
sten</w> 1
labor</w> 1
thrilled</w> 1
seren 1
documentary</w> 1
waves</w> 1
certain</w> 1
candid 1
allowed</w> 1
nintendo</w> 1
starwars</w> 1
tap</w> 1
homemade</w> 1
dles</w> 1
thering</w> 1
bree 1
empty</w> 1
piano</w> 1
positi 1
country 1
pork</w> 1
puts</w> 1
perry</w> 1
matic</w> 1
spotlight</w> 1
tist</w> 1
orities</w> 1
wealth</w> 1
cp 1
barbar 1
committed</w> 1
assau 1
profit</w> 1
eight</w> 1
hul 1
finishing</w> 1
runner</w> 1
sso</w> 1
inspec 1
charged</w> 1
christop 1
losing</w> 1
coal</w> 1
hoo</w> 1
elev 1
dele 1
moham 1
donation</w> 1
cable</w> 1
clinic</w> 1
jin 1
managed</w> 1
tering</w> 1
â¬ 1
urban 1
deputy</w> 1
bber</w> 1
burn 1
academic</w> 1
ott</w> 1
stake</w> 1
iter 1
stown</w> 1
acker</w> 1
adventures</w> 1
adams</w> 1
greg</w> 1
prom</w> 1
vol</w> 1
acqu 1
congre 1
paint 1
citizens</w> 1
call 1
afford 1
vc</w> 1
asks</w> 1
thetic</w> 1
independence</w> 1
âĽ 1
hitting</w> 1
blon 1
future 1
âı 1
inno 1
gene</w> 1
boards</w> 1
distance</w> 1
set 1
remem 1
thal 1
prevent</w> 1
lang 1
objec 1
susp 1
matt 1
induc 1
boro</w> 1
pione 1
redi 1
virtu 1
printed</w> 1
scope</w> 1
shark</w> 1
succe 1
astron 1
illegal</w> 1
jag 1
cting</w> 1
inee</w> 1
ato 1
robin</w> 1
nutrition</w> 1
bf</w> 1
dutch</w> 1
bn</w> 1
furniture</w> 1
forgotten</w> 1
atar</w> 1
rup 1
hyper 1
branch</w> 1
communication</w> 1
degrees</w> 1
onia</w> 1
uncle</w> 1
promote</w> 1
orche 1
wii</w> 1
js</w> 1
button</w> 1
major 1
cbs</w> 1
bristol</w> 1
premium</w> 1
ordinary</w> 1
edit</w> 1
mg</w> 1
weed</w> 1
steven</w> 1
:' 1
gus</w> 1
tes 1
captured</w> 1
drugs</w> 1
dow 1
writes</w> 1
bishop</w> 1
wheels</w> 1
alization</w> 1
discovery</w> 1
wr</w> 1
rachel</w> 1
neil</w> 1
hydr 1
cutest</w> 1
entrepreneur</w> 1
korean</w> 1
oregon</w> 1
ulty</w> 1
perfectly</w> 1
supported</w> 1
historical</w> 1
twins</w> 1
elly 1
wel</w> 1
devil</w> 1
income</w> 1
scientists</w> 1
deleg 1
hen</w> 1
oni</w> 1
iced</w> 1
gio</w> 1
curry</w> 1
reveal</w> 1
eg 1
buffalo</w> 1
nol 1
opera</w> 1
cameron</w> 1
hahahaha 1
jab 1
graduation</w> 1
craig</w> 1
ral 1
if 1
organization</w> 1
lege</w> 1
gang 1
sud 1
edinburgh</w> 1
lack</w> 1
flies</w> 1
gate 1
thrones</w> 1
qb</w> 1
thereal 1
eleg 1
ppin</w> 1
cles</w> 1
jamie</w> 1
tnam</w> 1
crypto 1
oul</w> 1
pages</w> 1
ase 1
roots</w> 1
stupid</w> 1
adid 1
boot</w> 1
protein</w> 1
sap 1
sium</w> 1
sus 1
endor 1
function</w> 1
dont 1
enna</w> 1
chy</w> 1
sque</w> 1
worker</w> 1
mtv 1
ea</w> 1
kan</w> 1
ðŁĴļ 1
mus</w> 1
profession 1
tto</w> 1
operations</w> 1
allo 1
ctor</w> 1
invite</w> 1
scand 1
outh</w> 1
zim 1
links</w> 1
clients</w> 1
samsung</w> 1
discusses</w> 1
nell</w> 1
ultra</w> 1
somewhere</w> 1
stewart</w> 1
inet</w> 1
dez</w> 1
bout</w> 1
factor</w> 1
tian</w> 1
trans</w> 1
jeremy</w> 1
db</w> 1
ðŁĩ¬ 1
orn</w> 1
developing</w> 1
spol</w> 1
cooper</w> 1
mau 1
remembering</w> 1
trek</w> 1
family 1
seniors</w> 1
foster</w> 1
attended</w> 1
wing 1
transform 1
elementary</w> 1
horiz 1
listing</w> 1
malaysia</w> 1
itch</w> 1
warrior</w> 1
philippines</w> 1
russell</w> 1
mend 1
initiative</w> 1
creep 1
tops</w> 1
briti 1
aur 1
sharp</w> 1
advertising</w> 1
ugly</w> 1
achiev 1
materials</w> 1
bug</w> 1
device</w> 1
bonus</w> 1
facility</w> 1
cole</w> 1
nhl</w> 1
yas 1
planned</w> 1
pole</w> 1
excellence</w> 1
trick</w> 1
confl 1
rp</w> 1
achieve</w> 1
loan</w> 1
swag</w> 1
jessica</w> 1
howe 1
pour</w> 1
scu 1
zoo 1
rated</w> 1
dresses</w> 1
rebel 1
mexican</w> 1
coordin 1
mess</w> 1
atlantic</w> 1
tl</w> 1
oscar</w> 1
walks</w> 1
pharmac 1
investigation</w> 1
...#</w> 1
cci</w> 1
easily</w> 1
mondaymotivation</w> 1
yment</w> 1
auti 1
forced</w> 1
armed</w> 1
colleagues</w> 1
papers</w> 1
proper</w> 1
shake 1
buc 1
lean</w> 1
exhibit</w> 1
evement</w> 1
cott 1
biz 1
sper 1
kent</w> 1
swan 1
/@</w> 1
girlfriend</w> 1
hawk</w> 1
âĺĢï¸ı</w> 1
mono 1
ðŁĴĽ 1
statue</w> 1
ðŁĺ³</w> 1
ras</w> 1
teeth</w> 1
precious</w> 1
tile</w> 1
pam 1
swift</w> 1
vali 1
nose</w> 1
drunk</w> 1
experiences</w> 1
comeback</w> 1
genius</w> 1
worse</w> 1
shef 1
rad</w> 1
edit 1
honour</w> 1
auspol</w> 1
larry</w> 1
hire</w> 1
gordon</w> 1
achievement</w> 1
........ 1
suicide</w> 1
alternative</w> 1
sup</w> 1
surroun 1
shake</w> 1
keith</w> 1
pepper</w> 1
turk 1
criminal</w> 1
beck 1
sum</w> 1
walls</w> 1
cnn</w> 1
antic 1
offe 1
colli 1
wines</w> 1
highlight</w> 1
hawaii</w> 1
embar 1
lfc</w> 1
ðŁĩ® 1
mv</w> 1
>> 1
atmo 1
word 1
carl 1
shoutout</w> 1
brewing</w> 1
ìĿ 1
dof 1
sic 1
hottest</w> 1
colon 1
hhh</w> 1
shut</w> 1
lowing</w> 1
volume</w> 1
apartment</w> 1
agreement</w> 1
destro 1
wee</w> 1
religious</w> 1
iowa</w> 1
rod</w> 1
landing</w> 1
represent 1
ðŁĵ·:</w> 1
las 1
usually</w> 1
hl 1
cac 1
salv 1
along 1
laughing</w> 1
beans</w> 1
reminds</w> 1
phase</w> 1
somebody</w> 1
mask</w> 1
ranked</w> 1
destroy 1
sci</w> 1
âĢ¼ï¸ı</w> 1
gabri 1
leo</w> 1
roa 1
failed</w> 1
sil</w> 1
refugees</w> 1
revi 1
ring 1
berries</w> 1
cookies</w> 1
yy</w> 1
conservation</w> 1
shab 1
humans</w> 1
determin 1
ain 1
niall</w> 1
assu 1
mba</w> 1
from 1
extreme</w> 1
vices</w> 1
commerce</w> 1
ghtful</w> 1
ordered</w> 1
supports</w> 1
recap</w> 1
vor 1
dropping</w> 1
correct</w> 1
paying</w> 1
meaning</w> 1
nj 1
quiz</w> 1
"#</w> 1
business 1
ðŁĩ®ðŁĩ 1
indigen 1
dust</w> 1
boxes</w> 1
blind</w> 1
xxx</w> 1
zzy</w> 1
ðŁĩ¬ðŁĩ 1
ssels</w> 1
sant 1
ddle</w> 1
hilarious</w> 1
design 1
wondering</w> 1
vehicles</w> 1
kre 1
jud 1
reception</w> 1
parker</w> 1
ÃŃ 1
privi 1
hydro 1
softball</w> 1
pollu 1
locked</w> 1
bah 1
ear</w> 1
script</w> 1
divi 1
brace 1
george 1
theast</w> 1
belo 1
jal 1
tionary</w> 1
dental</w> 1
rocket</w> 1
purch 1
shak 1
manufacturing</w> 1
ez</w> 1
itis</w> 1
concep 1
tball 1
chs</w> 1
directed</w> 1
prayers</w> 1
ook</w> 1
philos 1
variety</w> 1
chess</w> 1
server</w> 1
gand 1
balti 1
ðŁĵ¸ 1
sely</w> 1
cruz</w> 1
spectacular</w> 1
burning</w> 1
represent</w> 1
iz</w> 1
tone</w> 1
merce 1
hell 1
bedroom</w> 1
establi 1
bol</w> 1
common 1
ãĥ» 1
abor 1
kitty</w> 1
heights</w> 1
repair</w> 1
william 1
quake</w> 1
alabama</w> 1
population</w> 1
rev 1
rett</w> 1
ists</w> 1
nite</w> 1
lem</w> 1
aha</w> 1
cleveland</w> 1
rm</w> 1
pover 1
obse 1
montre 1
mania</w> 1
Â®</w> 1
conne 1
carni 1
shah</w> 1
fy 1
ua</w> 1
scor 1
struggle</w> 1
bob 1
''</w> 1
appropri 1
decide</w> 1
ffed</w> 1
caster</w> 1
sort</w> 1
hungry</w> 1
drag 1
Ø§Ù 1
grounds</w> 1
dw 1
slightly</w> 1
cardin 1
deadline</w> 1
bronze</w> 1
webin 1
barry</w> 1
silence</w> 1
euro</w> 1
option</w> 1
earn</w> 1
ðŁĴĸ 1
however</w> 1
naren 1
nails</w> 1
bathroom</w> 1
vine 1
phd</w> 1
mining</w> 1
garage</w> 1
()</w> 1
shoulder</w> 1
defeat</w> 1
dir</w> 1
ov</w> 1
liberty</w> 1
pleas 1
xon</w> 1
compre 1
av</w> 1
jin</w> 1
ables</w> 1
silent</w> 1
famili 1
visits</w> 1
dipl 1
habit 1
millions</w> 1
regarding</w> 1
innovative</w> 1
senator</w> 1
rts</w> 1
von</w> 1
kl 1
whil 1
required</w> 1
âĿĦ 1
luv</w> 1
presidential</w> 1
pocket</w> 1
hundre 1
shown</w> 1
frozen</w> 1
toward</w> 1
fast 1
confidence</w> 1
rough</w> 1
individual</w> 1
quet</w> 1
ðŁı½ 1
dome 1
fifa</w> 1
engineer</w> 1
zen 1
remix</w> 1
ðŁĺĥ</w> 1
plant 1
minor</w> 1
robinson</w> 1
asy 1
pulled</w> 1
certain 1
potato</w> 1
(:</w> 1
pres</w> 1
occa 1
wit</w> 1
item</w> 1
sie 1
dating</w> 1
thompson</w> 1
owned</w> 1
anu 1
vie</w> 1
tedly</w> 1
goodnight</w> 1
except</w> 1
ðŁĮŁ</w> 1
iraq</w> 1
kie 1
rences</w> 1
lip</w> 1
similar</w> 1
saudi</w> 1
vig 1
arthur</w> 1
picks</w> 1
milan</w> 1
honda</w> 1
maxi 1
og</w> 1
stest</w> 1
arch</w> 1
analytics</w> 1
basti 1
pearl</w> 1
terry</w> 1
horse 1
astro 1
acce 1
launching</w> 1
international 1
sno 1
tasty</w> 1
denver</w> 1
irl</w> 1
pete</w> 1
torn 1
advantage</w> 1
varsity</w> 1
""</w> 1
sole</w> 1
gc 1
lang</w> 1
demonstr 1
olds</w> 1
unity</w> 1
nets</w> 1
inspire</w> 1
crete</w> 1
nashville</w> 1
nelson</w> 1
eter 1
walk 1
hyun</w> 1
mack 1
treas 1
seeking</w> 1
rage</w> 1
brush</w> 1
aband 1
whilst</w> 1
cocon 1
hong</w> 1
shelter</w> 1
ip</w> 1
possibly</w> 1
soo</w> 1
ited 1
âĦ 1
races</w> 1
warming</w> 1
quin 1
television</w> 1
matches</w> 1
rapi 1
mental 1
palm</w> 1
jennifer</w> 1
rolls</w> 1
indiana</w> 1
bars</w> 1
catching</w> 1
rescu 1
candidates</w> 1
fare 1
âłĢ</w> 1
seo</w> 1
vietnam</w> 1
alpha</w> 1
michelle</w> 1
visible</w> 1
regre 1
wned</w> 1
apple 1
lip 1
ffe</w> 1
liz 1
yorkshire</w> 1
hail</w> 1
seasons</w> 1
began</w> 1
md 1
kc</w> 1
lap</w> 1
fascinating</w> 1
help 1
ury 1
ums</w> 1
nuts</w> 1
sem 1
alongside</w> 1
bridge 1
orial</w> 1
ove 1
worldcup</w> 1
british 1
comfortable</w> 1
ive</w> 1
hotels</w> 1
fairs</w> 1
horri 1
sox</w> 1
dining</w> 1
stream 1
barri 1
ssy</w> 1
wim 1
terms</w> 1
vu 1
pere 1
lens</w> 1
walked</w> 1
ror 1
lars</w> 1
shield</w> 1
doubt</w> 1
proto 1
crossing</w> 1
meant</w> 1
medium</w> 1
adding</w> 1
eb</w> 1
cheap</w> 1
func 1
paper 1
brands</w> 1
ryan 1
feedback</w> 1
collins</w> 1
unknown</w> 1
tropical</w> 1
sandwich</w> 1
fallen</w> 1
formu 1
select</w> 1
loads</w> 1
answers</w> 1
ori</w> 1
maga</w> 1
dor</w> 1
duo</w> 1
alie</w> 1
drum</w> 1
uri</w> 1
deer</w> 1
soul 1
shut 1
âĺº</w> 1
stolen</w> 1
donated</w> 1
buzz</w> 1
patriots</w> 1
hal</w> 1
nasty</w> 1
nominated</w> 1
monte 1
kia</w> 1
thri 1
ingu 1
tests</w> 1
petro 1
ðŁĳĳ</w> 1
hosts</w> 1
nest</w> 1
topic</w> 1
patch</w> 1
mmy</w> 1
hugh 1
abilities</w> 1
mathe 1
smiles</w> 1
gb 1
agenda</w> 1
insights</w> 1
chip</w> 1
phan 1
failure</w> 1
dgers</w> 1
hai 1
significant</w> 1
shock</w> 1
rural</w> 1
glam 1
figures</w> 1
potus</w> 1
ota</w> 1
ministry</w> 1
appears</w> 1
fear 1
rh 1
american 1
hatt 1
sony</w> 1
fires</w> 1
edi 1
nou 1
equi 1
when 1
universal</w> 1
madness</w> 1
ix</w> 1
sculpture</w> 1
bach</w> 1
tto 1
sweden</w> 1
eta</w> 1
ento</w> 1
developed</w> 1
monthly</w> 1
maps</w> 1
rah</w> 1
led 1
delta</w> 1
saints</w> 1
islam</w> 1
bench</w> 1
fifth</w> 1
vard</w> 1
socks</w> 1
welcoming</w> 1
je</w> 1
turner</w> 1
vb</w> 1
adi</w> 1
norway</w> 1
ady</w> 1
hurricane</w> 1
porsche</w> 1
tradition</w> 1
exam</w> 1
newspaper</w> 1
luci 1
aver 1
ideal</w> 1
dna</w> 1
madison</w> 1
ðŁ§ 1
witness</w> 1
acou 1
insight</w> 1
simon 1
robot</w> 1
snake</w> 1
nbc</w> 1
aco</w> 1
ross 1
shment</w> 1
religion</w> 1
chann 1
insu 1
campbell</w> 1
installed</w> 1
weather 1
horses</w> 1
oli</w> 1
robert 1
kaz 1
ðŁıĢ</w> 1
veteran</w> 1
thread</w> 1
quarter 1
easier</w> 1
capture</w> 1
hipho 1
lawrence</w> 1
romantic</w> 1
passion 1
clay</w> 1
oxford</w> 1
thai</w> 1
studying</w> 1
fia</w> 1
elected</w> 1
mostly</w> 1
cb</w> 1
tumb 1
âĢįâĻĤ 1
xl</w> 1
shan</w> 1
faster</w> 1
evans</w> 1
slide</w> 1
shri 1
seek</w> 1
mies</w> 1
chemistry</w> 1
pumpkin</w> 1
tum</w> 1
,,</w> 1
room 1
fired</w> 1
lips</w> 1
presence</w> 1
aff 1
brewery</w> 1
arrive</w> 1
swag 1
photograph</w> 1
pengu 1
chips</w> 1
attor 1
values</w> 1
accurate</w> 1
contemporary</w> 1
principal</w> 1
cannabis</w> 1
ario</w> 1
anywhere</w> 1
gia</w> 1
democrats</w> 1
buildings</w> 1
lived</w> 1
aps</w> 1
negative</w> 1
mare</w> 1
ballo 1
lion 1
diamon 1
look 1
reform</w> 1
tommy</w> 1
illa 1
treats</w> 1
hundreds</w> 1
portland</w> 1
worthy</w> 1
excep 1
aria</w> 1
idol</w> 1
beer 1
cdn 1
yu</w> 1
awk 1
ðŁĩ¨ 1
cells</w> 1
Ã³ 1
identity</w> 1
drawn</w> 1
devil 1
finger</w> 1
tham</w> 1
ðŁĳĬ 1
earned</w> 1
fintech</w> 1
dolph 1
tweeting</w> 1
evolution</w> 1
ðŁĵį</w> 1
estim 1
mvp</w> 1
none</w> 1
ðŁĩºðŁĩ¸ 1
toyota</w> 1
aux</w> 1
marin 1
bold</w> 1
lbs</w> 1
steak</w> 1
murphy</w> 1
itable</w> 1
louis 1
solve</w> 1
pia</w> 1
skir 1
illino 1
webinar</w> 1
banana</w> 1
lov 1
thon</w> 1
voters</w> 1
affordable</w> 1
defeated</w> 1
lmfa 1
airlines</w> 1
superb</w> 1
anyway</w> 1
debt</w> 1
bored</w> 1
versi 1
metal 1
responsible</w> 1
mk</w> 1
sse</w> 1
fay 1
caused</w> 1
fp</w> 1
recommend</w> 1
plaza</w> 1
sporting</w> 1
alliance</w> 1
austri 1
nn 1
tours</w> 1
surprised</w> 1
artif 1
thunder</w> 1
surve 1
wore</w> 1
brief</w> 1
necessary</w> 1
zie</w> 1
ashley</w> 1
drake</w> 1
rt 1
knife</w> 1
immun 1
charges</w> 1
athe 1
bride</w> 1
reply</w> 1
gav 1
broadcast</w> 1
puer 1
bracelet</w> 1
capacity</w> 1
harvest</w> 1
idk</w> 1
performan 1
dding</w> 1
ilers</w> 1
para</w> 1
jama 1
province</w> 1
chin</w> 1
iders</w> 1
hari</w> 1
teaser</w> 1
chen</w> 1
restor 1
rat</w> 1
flat 1
colom 1
ðŁĴŀ</w> 1
ðŁĩ¨ðŁĩ 1
smooth</w> 1
rt</w> 1
pitch 1
staying</w> 1
israeli</w> 1
tcot</w> 1
perspective</w> 1
dock</w> 1
opener</w> 1
lovel 1
xo</w> 1
classroom</w> 1
lington</w> 1
goal 1
kennedy</w> 1
sham</w> 1
spaces</w> 1
mitchell</w> 1
homecoming</w> 1
uki</w> 1
claimed</w> 1
recruit 1
ingo</w> 1
mufc</w> 1
monit 1
groo 1
resident</w> 1
percent</w> 1
perman 1
ottawa</w> 1
intment</w> 1
anxi 1
standards</w> 1
worship</w> 1
scheme</w> 1
fx</w> 1
potter</w> 1
bian</w> 1
athletic</w> 1
afgh 1
sse 1
satell 1
parties</w> 1
âĿ¤âĿ¤ 1
infrastructure</w> 1
relax</w> 1
modu 1
worn</w> 1
smoking</w> 1
yach 1
practices</w> 1
wcw</w> 1
amb 1
domestic</w> 1
taylor 1
kentu 1
provided</w> 1
modi 1
veg 1
"...</w> 1
observ 1
ðŁĺ© 1
beard</w> 1
mour 1
angry</w> 1
ðŁĺ±</w> 1
startups</w> 1
wooden</w> 1
dive</w> 1
nail</w> 1
antique</w> 1
roses</w> 1
tornado</w> 1
mat</w> 1
^^</w> 1
suspect</w> 1
farm 1
devices</w> 1
mega</w> 1
tul 1
scholarship</w> 1
gee</w> 1
disaster</w> 1
arrival</w> 1
poin 1
marc</w> 1
katie</w> 1
bbed</w> 1
false</w> 1
deserves</w> 1
richard 1
juana</w> 1
frey</w> 1
tioned</w> 1
hybri 1
rw 1
sarah 1
achi</w> 1
cure</w> 1
ole 1
morris</w> 1
chic</w> 1
broadway</w> 1
label</w> 1
pak</w> 1
poverty</w> 1
golf 1
ered</w> 1
fu</w> 1
eries</w> 1
bees</w> 1
alogue</w> 1
stel 1
wireless</w> 1
jewish</w> 1
tide</w> 1
blocked</w> 1
lifetime</w> 1
bhar 1
split</w> 1
amster 1
thi</w> 1
joshu 1
brunch</w> 1
haps</w> 1
sfor 1
oops</w> 1
kapoor</w> 1
hiking</w> 1
supposed</w> 1
roof 1
reas 1
train 1
tight</w> 1
trump 1
basically</w> 1
rr</w> 1
eared</w> 1
seeds</w> 1
entrance</w> 1
cp</w> 1
wie</w> 1
sonic</w> 1
victim</w> 1
here 1
eh</w> 1
earrings</w> 1
salmon</w> 1
arctic</w> 1
anne 1
dougla 1
corruption</w> 1
hannah</w> 1
hasn</w> 1
voices</w> 1
conce 1
atta</w> 1
fleet</w> 1
clinical</w> 1
democratic</w> 1
tony 1
stood</w> 1
lef 1
twitch</w> 1
ail</w> 1
honestly</w> 1
increased</w> 1
drome</w> 1
donna</w> 1
accepted</w> 1
visitors</w> 1
apar 1
ador</w> 1
par</w> 1
jerry</w> 1
rai 1
brandon</w> 1
abu 1
!!!!!!</w> 1
meme</w> 1
ingh 1
glorious</w> 1
bhu 1
pump</w> 1
jol 1
like 1
fisher</w> 1
maz 1
agan</w> 1
destination</w> 1
playlist</w> 1
letters</w> 1
genu 1
brace</w> 1
celebrated</w> 1
banner</w> 1
rhe 1
dragon 1
ðŁĺħ</w> 1
signature</w> 1
grey 1
âľĶï¸ı</w> 1
alice</w> 1
bered</w> 1
pher 1
bern 1
cath 1
gathering</w> 1
scoring</w> 1
influence</w> 1
smiling</w> 1
dept</w> 1
local 1
ax</w> 1
acu 1
retirement</w> 1
honor 1
herself</w> 1
chemical</w> 1
assess 1
yall</w> 1
frequ 1
appreciation</w> 1
aca</w> 1
choir</w> 1
cuz</w> 1
soil</w> 1
cil 1
reporting</w> 1
uh</w> 1
enterprise</w> 1
grat 1
jacob</w> 1
rum 1
fee</w> 1
jak 1
spin</w> 1
bikes</w> 1
phia</w> 1
stere 1
pis 1
blood 1
tatt 1
raft</w> 1
warren</w> 1
sheri 1
backstage</w> 1
marsh 1
hashtag</w> 1
therine</w> 1
rein 1
gameday</w> 1
guaran 1
recipes</w> 1
minds</w> 1
stronger</w> 1
issued</w> 1
bicy 1
nak 1
mented</w> 1
scary</w> 1
ux 1
previous</w> 1
ttle</w> 1
thats</w> 1
actors</w> 1
uma</w> 1
tina</w> 1
bunny</w> 1
promotion</w> 1
uss</w> 1
oliver</w> 1
montreal</w> 1
whats 1
appreciated</w> 1
lakes</w> 1
excuse</w> 1
knowing</w> 1
prizes</w> 1
muscle</w> 1
shades</w> 1
scot</w> 1
ingredi 1
electronic</w> 1
juan</w> 1
combat</w> 1
sri</w> 1
eh 1
turkish</w> 1
lom 1
strikes</w> 1
prison 1
ree 1
pope</w> 1
vid</w> 1
oldest</w> 1
doll</w> 1
swiss</w> 1
certified</w> 1
clip</w> 1
returning</w> 1
lator</w> 1
leigh</w> 1
ttes</w> 1
watson</w> 1
healing</w> 1
elim 1
perhaps</w> 1
hass 1
kau 1
dder</w> 1
mouse</w> 1
newcastle</w> 1
indigenous</w> 1
welcomes</w> 1
cole 1
taught</w> 1
noise</w> 1
appear</w> 1
joe 1
canon</w> 1
wednesday 1
utah</w> 1
ctive</w> 1
driven</w> 1
iv</w> 1
cell 1
strip</w> 1
acc</w> 1
focused</w> 1
arrest</w> 1
stocks</w> 1
woo</w> 1
âĹ 1
noticed</w> 1
shado 1
displa 1
terror</w> 1
borne</w> 1
second 1
queens</w> 1
woke</w> 1
jail</w> 1
nott 1
cambridge</w> 1
hart 1
seaf 1
fax</w> 1
accept</w> 1
âĺħ 1
goods</w> 1
kat</w> 1
twin 1
hs 1
thousand</w> 1
sins</w> 1
suite</w> 1
ampton</w> 1
arn 1
relev 1
richar 1
hoops</w> 1
nbc 1
classic 1
pab 1
soldier</w> 1
deplo 1
leans</w> 1
installation</w> 1
clash</w> 1
leban 1
eee</w> 1
tire</w> 1
beloved</w> 1
fusion</w> 1
traveling</w> 1
nei 1
cookie</w> 1
globe</w> 1
physics</w> 1
sq 1
col</w> 1
wolves</w> 1
dl</w> 1
exit</w> 1
"-</w> 1
football 1
leaf 1
sterling</w> 1
hide</w> 1
minneso 1
freshman</w> 1
nature 1
indie</w> 1
supplies</w> 1
bris 1
irish 1
inktober</w> 1
doodle</w> 1
icop 1
messages</w> 1
adults</w> 1
recorded</w> 1
fixed</w> 1
ardo</w> 1
offered</w> 1
underground</w> 1
drone</w> 1
pine 1
mainten 1
andre</w> 1
hammer</w> 1
sx 1
round 1
hike</w> 1
brad</w> 1
rome 1
full 1
oney</w> 1
rows</w> 1
columbia</w> 1
archives</w> 1
approved</w> 1
batch</w> 1
illinois</w> 1
recognition</w> 1
shouldn</w> 1
fog</w> 1
ncaa</w> 1
kevin 1
humanity</w> 1
although</w> 1
powers</w> 1
pou 1
sar</w> 1
pest</w> 1
alcohol</w> 1
consci 1
philadel 1
eno 1
tm 1
okla 1
category</w> 1
participate</w> 1
accused</w> 1
brief 1
poem</w> 1
clubs</w> 1
consult 1
jab</w> 1
bigdata</w> 1
amsterdam</w> 1
acing</w> 1
certific 1
nu</w> 1
dat</w> 1
improved</w> 1
andy 1
campaig 1
palestin 1
pace</w> 1
mobi 1
feelings</w> 1
wolf 1
brain 1
propos 1
interactive</w> 1
prince 1
index</w> 1
cis 1
chae 1
peaceful</w> 1
covering</w> 1
aco 1
courses</w> 1
monkey</w> 1
replace</w> 1
bl</w> 1
bloody</w> 1
tales</w> 1
brighton</w> 1
neighborhood</w> 1
gates</w> 1
spiritual</w> 1
afraid</w> 1
breast</w> 1
bones</w> 1
ðŁĳī 1
video 1
wau 1
touch 1
injuries</w> 1
carl</w> 1
rix</w> 1
unex 1
âĢ¢ 1
fred 1
considered</w> 1
thusi 1
anch 1
ony 1
usa 1
graphics</w> 1
acre</w> 1
ðŁĺ©</w> 1
commemor 1
commod 1
goti 1
guardian</w> 1
starbucks</w> 1
prevention</w> 1
hahahaha</w> 1
administration</w> 1
portugal</w> 1
faculty</w> 1
beta</w> 1
ula</w> 1
albert</w> 1
breath 1
eri</w> 1
letting</w> 1
tric 1
mentation</w> 1
incredibly</w> 1
tennes 1
vd</w> 1
ðŁĻĪ</w> 1
eddie</w> 1
brick</w> 1
grill</w> 1
btw</w> 1
watches</w> 1
researchers</w> 1
tney</w> 1
nie 1
pas</w> 1
aster</w> 1
vibr 1
pokemon</w> 1
chrome</w> 1
goat</w> 1
pitts 1
illy</w> 1
festive</w> 1
yd</w> 1
canal</w> 1
ðŁĨ 1
fies</w> 1
carlos</w> 1
reque 1
partici 1
trains</w> 1
sample</w> 1
temperature</w> 1
symph 1
picking</w> 1
indoor</w> 1
zers</w> 1
playoffs</w> 1
________ 1
apes</w> 1
lyrics</w> 1
islamic</w> 1
performances</w> 1
dick</w> 1
spark 1
seas</w> 1
homa</w> 1
ground 1
disci 1
employee</w> 1
commu 1
alaska</w> 1
alan 1
feast</w> 1
dging</w> 1
banking</w> 1
manuel</w> 1
slowly</w> 1
trucks</w> 1
mccar 1
ooo</w> 1
scrat 1
orchestra</w> 1
individu 1
mx</w> 1
breath</w> 1
stairs</w> 1
equality</w> 1
blake</w> 1
locations</w> 1
coconut</w> 1
baltimore</w> 1
aaa</w> 1
lc 1
ðŁıĨ 1
harvey</w> 1
resist</w> 1
immigration</w> 1
adidas</w> 1
fili 1
ref</w> 1
lgbt</w> 1
mos</w> 1
ppi</w> 1
kenny</w> 1
terror 1
bane</w> 1
apolis</w> 1
sg 1
socialmedia</w> 1
kai</w> 1
honest</w> 1
assas 1
bollywood</w> 1
âĢįâĻĢï¸ı</w> 1
ferrari</w> 1
horn</w> 1
crypto</w> 1
boom 1
maintenance</w> 1
idi 1
sman</w> 1
wl</w> 1
extended</w> 1
insul 1
ves 1
gosp 1
tri</w> 1
pig</w> 1
targe 1
celer 1
stati 1
smh</w> 1
ridic 1
appeal</w> 1
?)</w> 1
conclu 1
cosme 1
sheep</w> 1
christopher</w> 1
enthusi 1
polish</w> 1
mets</w> 1
ounded</w> 1
sustainability</w> 1
creativity</w> 1
concrete</w> 1
rai</w> 1
alien</w> 1
bless 1
tees</w> 1
club 1
rot</w> 1
bos</w> 1
exist</w> 1
perfection</w> 1
luck 1
rocky</w> 1
expensive</w> 1
meanwhile</w> 1
happybirthday 1
pret 1
thriller</w> 1
cave</w> 1
playoff</w> 1
somer 1
lu</w> 1
lex</w> 1
defence</w> 1
amwriting</w> 1
homeless</w> 1
prophe 1
chet</w> 1
pastor</w> 1
ðŁ¤£ 1
lander</w> 1
www</w> 1
Ģï¸ı 1
tica</w> 1
!#</w> 1
otic</w> 1
radar</w> 1
posters</w> 1
powder</w> 1
poli 1
haun 1
trap</w> 1
blin 1
assault</w> 1
shorts</w> 1
rey 1
shy</w> 1
squir 1
racist</w> 1
garlic</w> 1
fur</w> 1
remote</w> 1
smell</w> 1
impressed</w> 1
fingers</w> 1
âłĢ 1
dino 1
lement</w> 1
snu 1
promoting</w> 1
string</w> 1
productive</w> 1
bage</w> 1
mason</w> 1
raz 1
directly</w> 1
jk</w> 1
eval</w> 1
ðŁĳĬ</w> 1
doctors</w> 1
cow</w> 1
rider</w> 1
stv</w> 1
remove</w> 1
wu 1
nathan</w> 1
rod 1
nr</w> 1
=></w> 1
affected</w> 1
invest</w> 1
mption</w> 1
ginger</w> 1
od</w> 1
agriculture</w> 1
sque 1
mug</w> 1
counting</w> 1
kee 1
magnific 1
cook 1
anistan</w> 1
root</w> 1
placed</w> 1
sympo 1
ghana</w> 1
und</w> 1
cheer 1
throwing</w> 1
secrets</w> 1
filling</w> 1
optimi 1
butterfly</w> 1
bubb 1
ðŁĺī 1
terrible</w> 1
dg</w> 1
silk</w> 1
obsessed</w> 1
lou</w> 1
aide</w> 1
salute</w> 1
monu 1
philadelphia</w> 1
scientific</w> 1
ist 1
uae</w> 1
dessert</w> 1
bottles</w> 1
canyon</w> 1
ðŁĺĪ</w> 1
carib 1
other 1
wich 1
resource</w> 1
guilty</w> 1
und 1
leon</w> 1
ess</w> 1
kane</w> 1
ele</w> 1
trainer</w> 1
heim</w> 1
ante</w> 1
manage</w> 1
rookie</w> 1
treated</w> 1
poses</w> 1
rsvp</w> 1
causes</w> 1
awak 1
jewell 1
lett</w> 1
onics</w> 1
titles</w> 1
cardiff</w> 1
gaga</w> 1
bump 1
useful</w> 1
?! 1
loose</w> 1
bbing</w> 1
::</w> 1
argentina</w> 1
debu 1
cycl 1
whel 1
disgu 1
jel 1
kills</w> 1
biology</w> 1
exter 1
trash</w> 1
bodies</w> 1
tram 1
circuit</w> 1
expect 1
lads</w> 1
wells</w> 1
shot 1
gee 1
narendr 1
fastest</w> 1
bent 1
bills</w> 1
marshall</w> 1
hats</w> 1
introduce</w> 1
citizen</w> 1
impossible</w> 1
gib 1
azz 1
networking</w> 1
rant</w> 1
think 1
indy 1
stops</w> 1
ftheday</w> 1
brian 1
** 1
amodi</w> 1
dome</w> 1
courage</w> 1
packing</w> 1
affairs</w> 1
gn</w> 1
sized</w> 1
entary</w> 1
poland</w> 1
switzer 1
afghanistan</w> 1
wu</w> 1
tender</w> 1
subscribe</w> 1
mosco 1
attend 1
republican</w> 1
honey 1
âĢĭ</w> 1
simul 1
wester 1
foodie</w> 1
oro 1
middle 1
abt</w> 1
copies</w> 1
maje 1
narendramodi</w> 1
typical</w> 1
inspirational</w> 1
vitam 1
wiscon 1
cubs</w> 1
tivity</w> 1
hali 1
ears</w> 1
kay</w> 1
dare</w> 1
marijuana</w> 1
curious</w> 1
ania</w> 1
tomato</w> 1
remind</w> 1
ðŁĩ·</w> 1
scared</w> 1
coup 1
poet</w> 1
landed</w> 1
rid</w> 1
wrapped</w> 1
morri 1
climbing</w> 1
ews</w> 1
feeding</w> 1
contra 1
thology</w> 1
grid</w> 1
tively</w> 1
reader</w> 1
laser</w> 1
diving</w> 1
dig</w> 1
latin</w> 1
tied</w> 1
shakespe 1
oci 1
adm 1
showers</w> 1
chuck</w> 1
marcus</w> 1
oos</w> 1
knee</w> 1
olive</w> 1
owl</w> 1
dylan</w> 1
anno 1
gym 1
decisions</w> 1
wellness</w> 1
arrives</w> 1
satis 1
chris 1
thurs</w> 1
ðŁ¤£</w> 1
interviews</w> 1
thankyou</w> 1
switzerland</w> 1
overnight</w> 1
journalist</w> 1
serves</w> 1
volcan 1
.......</w> 1
plot</w> 1
nicol 1
carrying</w> 1
magne 1
treasure</w> 1
exp 1
bever 1
ðŁĺ¢</w> 1
marty 1
mole 1
donations</w> 1
recognized</w> 1
bh 1
dus</w> 1
shann 1
aldo</w> 1
successfully</w> 1
ente</w> 1
ðŁĺĤðŁĺĤðŁĺĤðŁĺĤ 1
cabinet</w> 1
cuis 1
titled</w> 1
das 1
sol</w> 1
strategies</w> 1
delivering</w> 1
adds</w> 1
anian</w> 1
nether 1
ðŁĴĥ 1
contain 1
suits</w> 1
pairs</w> 1
todd</w> 1
rella</w> 1
rope</w> 1
cio</w> 1
crop</w> 1
paintings</w> 1
suz 1
rejec 1
bust</w> 1
dh</w> 1
fraud</w> 1
mh 1
control 1
jeal 1
destroyed</w> 1
allows</w> 1
wool 1
minnesota</w> 1
omen 1
ju</w> 1
symposium</w> 1
daf 1
limit</w> 1
accounts</w> 1
loading</w> 1
intern 1
resolution</w> 1
holland</w> 1
qual 1
meetings</w> 1
grave</w> 1
camping</w> 1
vam 1
renov 1
liberal</w> 1
amber</w> 1
gree 1
humb 1
fever</w> 1
eling</w> 1
brooks</w> 1
à² 1
beth 1
aded</w> 1
alt 1
roe</w> 1
performed</w> 1
josh 1
franklin</w> 1
nicole</w> 1
dess</w> 1
bbs</w> 1
mg 1
networks</w> 1
minim 1
alt</w> 1
weapons</w> 1
guy 1
jason 1
gha 1
harbour</w> 1
aton</w> 1
praise</w> 1
kentucky</w> 1
belfast</w> 1
sticks</w> 1
bloss 1
hopes</w> 1
anthro 1
familiar</w> 1
wait 1
chile</w> 1
depression</w> 1
lax</w> 1
jets</w> 1
leice 1
receives</w> 1
sier 1
ank</w> 1
dex 1
indeed</w> 1
flexi 1
fabric</w> 1
lamb</w> 1
helicop 1
amanda</w> 1
âĢĶâĢĶ 1
compete</w> 1
snack</w> 1
technologies</w> 1
syrian</w> 1
moms</w> 1
muham 1
chosen</w> 1
anat 1
devon</w> 1
sharks</w> 1
ret</w> 1
fundraiser</w> 1
selfies</w> 1
stations</w> 1
communications</w> 1
tennessee</w> 1
tutor 1
rot 1
valuable</w> 1
dynamic</w> 1
nurse</w> 1
ied</w> 1
earthquake</w> 1
deserved</w> 1
ave 1
sara</w> 1
stretch</w> 1
douglas</w> 1
nepal</w> 1
Ã§ 1
obviously</w> 1
dame</w> 1
rape</w> 1
anybody</w> 1
kw 1
patrol</w> 1
holders</w> 1
hanna</w> 1
infographic</w> 1
eco</w> 1
beating</w> 1
stanley</w> 1
boats</w> 1
ribb 1
ez 1
witch</w> 1
inva 1
acid</w> 1
boarding</w> 1
-@</w> 1
gil</w> 1
dave 1
careers</w> 1
oppos 1
lloy 1
inter</w> 1
dope</w> 1
resu 1
jagu 1
shade</w> 1
indy</w> 1
onist</w> 1
relations</w> 1
agen 1
able 1
incident</w> 1
meter</w> 1
sharma</w> 1
idr</w> 1
prove</w> 1
immediately</w> 1
troops</w> 1
aman</w> 1
glow</w> 1
gaza</w> 1
blocks</w> 1
personal 1
chronic 1
aller 1
sid 1
shr 1
whatsapp</w> 1
lucy</w> 1
archae 1
hou</w> 1
journalism</w> 1
ourselves</w> 1
got 1
themed</w> 1
shaped</w> 1
weak</w> 1
casual</w> 1
length</w> 1
slam</w> 1
abbey</w> 1
ev</w> 1
counter 1
esta</w> 1
recipi 1
chapel</w> 1
expansion</w> 1
self 1
suffering</w> 1
spice</w> 1
nz 1
spart 1
desper 1
booking</w> 1
quarters</w> 1
yon 1
ðŁĴĹ 1
pk 1
continued</w> 1
-#</w> 1
manhatt 1
talked</w> 1
shen 1
combo</w> 1
hybrid</w> 1
jeans</w> 1
liquid</w> 1
seal</w> 1
retweets</w> 1
acceler 1
collective</w> 1
tas</w> 1
:))</w> 1
professionals</w> 1
raw 1
ott 1
susan</w> 1
iring</w> 1
oklahoma</w> 1
reven 1
survival</w> 1
creator</w> 1
transit</w> 1
stac 1
surf 1
ik</w> 1
editing</w> 1
chilling</w> 1
bailey</w> 1
steal</w> 1
rable</w> 1
parent</w> 1
hunger</w> 1
snapp 1
collect</w> 1
philosoph 1
dedication</w> 1
cf 1
cm 1
leep</w> 1
repeat</w> 1
reha 1
unfortun 1
aer 1
aero 1
abstract</w> 1
monitor</w> 1
agents</w> 1
bul</w> 1
science 1
harbor</w> 1
dragons</w> 1
flooding</w> 1
accompli 1
dash</w> 1
julia</w> 1
thered</w> 1
tuesday 1
cyber</w> 1
blow</w> 1
tained</w> 1
lem 1
reference</w> 1
ppo</w> 1
negoti 1
charle 1
connor</w> 1
ault</w> 1
accessories</w> 1
commissioner</w> 1
rainy</w> 1
rear</w> 1
advisory</w> 1
lucas</w> 1
maid</w> 1
coal 1
kav 1
polo</w> 1
ðŁı¾ 1
transport 1
margare 1
strawberry</w> 1
burns</w> 1
greens</w> 1
nev 1
participants</w> 1
colin</w> 1
belgium</w> 1
colour 1
inform 1
dell</w> 1
bron</w> 1
caly 1
kickoff</w> 1
strategic</w> 1
reunion</w> 1
honors</w> 1
lib 1
egyp 1
âŃĲï¸ı</w> 1
hypo 1
sizes</w> 1
registered</w> 1
betes</w> 1
relaxing</w> 1
bloom</w> 1
intense</w> 1
valentines</w> 1
insane</w> 1
wwii</w> 1
px</w> 1
trio</w> 1
blade</w> 1
wisconsin</w> 1
cone</w> 1
platin 1
alize</w> 1
raven 1
increasing</w> 1
indians</w> 1
ilian</w> 1
blu</w> 1
rabbit</w> 1
extension</w> 1
jef 1
audi</w> 1
ferry</w> 1
sell 1
aday</w> 1
usb</w> 1
sweat 1
champag 1
method</w> 1
memph 1
assist</w> 1
sby</w> 1
cape 1
removed</w> 1
magn 1
vt</w> 1
rams</w> 1
fbi</w> 1
tackle</w> 1
phew</w> 1
hon</w> 1
motorcycle</w> 1
suspec 1
elephant</w> 1
subject</w> 1
lette</w> 1
dairy</w> 1
wheat</w> 1
awkward</w> 1
act 1
trol 1
mitted</w> 1
zayn</w> 1
sheriff</w> 1
enemy</w> 1
cons</w> 1
kett</w> 1
bulls</w> 1
evalu 1
btc</w> 1
satellite</w> 1
holo 1
porter</w> 1
diabetes</w> 1
better 1
releasing</w> 1
surf</w> 1
:-</w> 1
sebasti 1
collecting</w> 1
encing</w> 1
ethi 1
gods</w> 1
alley</w> 1
healthy 1
mills</w> 1
smash</w> 1
copper</w> 1
crack</w> 1
readers</w> 1
spac 1
license</w> 1
basket</w> 1
bangla 1
entic</w> 1
omi</w> 1
mere</w> 1
sively</w> 1
animation</w> 1
lanes</w> 1
dentally</w> 1
chillin</w> 1
fie</w> 1
karen</w> 1
depth</w> 1
lipse</w> 1
ng 1
rip 1
melo 1
sandy</w> 1
ðŁĳıðŁĳı 1
vincent</w> 1
nut 1
hug</w> 1
whole 1
creates</w> 1
????</w> 1
âĿ¤ï¸ıâĿ¤ï¸ı</w> 1
baked</w> 1
upgrade</w> 1
roberts</w> 1
hara</w> 1
caribbean</w> 1
authentic</w> 1
mbs</w> 1
moscow</w> 1
attorney</w> 1
wiki 1
chlo 1
hull</w> 1
cork</w> 1
"!</w> 1
stylish</w> 1
ðŁĵ¸:</w> 1
diary</w> 1
improving</w> 1
expand 1
bright 1
pollution</w> 1
knights</w> 1
personality</w> 1
checked</w> 1
facilities</w> 1
zel 1
bowling</w> 1
guer 1
ðŁİĤ</w> 1
ongoing</w> 1
units</w> 1
hook</w> 1
beck</w> 1
conflict</w> 1
todd 1
farming</w> 1
educational</w> 1
kak 1
clay 1
stroke</w> 1
belly</w> 1
explore 1
millenni 1
thm</w> 1
loop</w> 1
sms</w> 1
consist 1
circa</w> 1
bryan</w> 1
dab 1
younger</w> 1
solidar 1
ppa</w> 1
experienced</w> 1
bella</w> 1
board 1
sheffield</w> 1
stephen 1
consumer</w> 1
submit</w> 1
sponsor 1
tang 1
aggre 1
combined</w> 1
tracking</w> 1
sanders</w> 1
baz 1
survive</w> 1
ferred</w> 1
equal</w> 1
sep</w> 1
reed</w> 1
strong 1
privacy</w> 1
stap 1
ung 1
acry 1
pasta</w> 1
pirates</w> 1
ager</w> 1
fairy</w> 1
dup</w> 1
introduced</w> 1
wip</w> 1
lets 1
spray</w> 1
ðŁĵº</w> 1
grew</w> 1
asts</w> 1
pittsburgh</w> 1
newyork</w> 1
joey</w> 1
lauren 1
trade 1
chop 1
pipe</w> 1
claire</w> 1
behavior</w> 1
vap 1
crews</w> 1
laptop</w> 1
ðŁ¤Ĺ</w> 1
chester 1
discipl 1
df</w> 1
outdoors</w> 1
ks 1
gover 1
superstar</w> 1
casino</w> 1
farmer</w> 1
;-)</w> 1
returned</w> 1
ðŁıĪ</w> 1
mail 1
roasted</w> 1
costa</w> 1
vill 1
pez</w> 1
gardening</w> 1
distribution</w> 1
shining</w> 1
investors</w> 1
rasp 1
decades</w> 1
realized</w> 1
barn 1
pti</w> 1
stable</w> 1
utd</w> 1
panthers</w> 1
mens</w> 1
bn 1
cade 1
bucket</w> 1
ynn</w> 1
whenever</w> 1
wake 1
dais 1
bernie</w> 1
lodge</w> 1
julie</w> 1
atmosphere</w> 1
ðŁĺĺðŁĺĺ</w> 1
majority</w> 1
parti 1
excit 1
cut 1
meh 1
muslims</w> 1
begun</w> 1
flights</w> 1
veness</w> 1
ceme 1
posing</w> 1
sole 1
gou 1
darkness</w> 1
peach 1
celtic</w> 1
authority</w> 1
grandma</w> 1
fulness</w> 1
smith 1
specific</w> 1
garcia</w> 1
coins</w> 1
goodness</w> 1
aldub 1
recruiting</w> 1
dennis</w> 1
gary 1
sleeve</w> 1
weapon</w> 1
plz</w> 1
discover 1
harrison</w> 1
recruitment</w> 1
jai 1
chim 1
compared</w> 1
toms</w> 1
mothers</w> 1
amy 1
archive</w> 1
task</w> 1
benjam 1
seg 1
lawyer</w> 1
alum</w> 1
investing</w> 1
mie</w> 1
chez</w> 1
jp</w> 1
ake 1
flam 1
wallpaper</w> 1
âĻ¥ï¸ı</w> 1
tton</w> 1
chest</w> 1
favorites</w> 1
weigh 1
coolest</w> 1
rating</w> 1
relevant</w> 1
logan</w> 1
maple</w> 1
runners</w> 1
prior</w> 1
people 1
maur 1
terrorist</w> 1
tested</w> 1
carnival</w> 1
suspen 1
measure</w> 1
mv 1
cybersecurity</w> 1
appren 1
terrorism</w> 1
oz 1
vital</w> 1
nies</w> 1
gonz 1
funded</w> 1
twist</w> 1
assessment</w> 1
diesel</w> 1
enfor 1
column</w> 1
addressing</w> 1
casts</w> 1
payment</w> 1
xton</w> 1
fier</w> 1
,'</w> 1
last 1
nee</w> 1
unless</w> 1
close 1
skill</w> 1
cuisine</w> 1
funeral</w> 1
tiles</w> 1
aun 1
kru 1
relationships</w> 1
ðŁĴ¯ 1
event 1
âĢįâĻĤï¸ı</w> 1
kindness</w> 1
proposed</w> 1
acoustic</w> 1
aes 1
defender</w> 1
dance 1
htt 1
wat</w> 1
voy 1
ðŁ¤ĺ 1
aus 1
cliff</w> 1
searching</w> 1
beautifully</w> 1
inqu 1
atl</w> 1
specialist</w> 1
ðŁĲ¶</w> 1
dai</w> 1
trails</w> 1
classics</w> 1
instant</w> 1
vous</w> 1
revenue</w> 1
march 1
kirk 1
fringe</w> 1
fireworks</w> 1
trivia</w> 1
âĺħ</w> 1
traction</w> 1
walter</w> 1
moto 1
lily</w> 1
attitude</w> 1
climb</w> 1
scan 1
savings</w> 1
cw 1
faith 1
credits</w> 1
abled</w> 1
graff 1
autograph 1
hehe</w> 1
ranch</w> 1
had 1
rogers</w> 1
ðŁĮ¹</w> 1
fin</w> 1
requ 1
folk 1
additional</w> 1
lynn</w> 1
uber</w> 1
dollars</w> 1
logic</w> 1
worth 1
som</w> 1
thesis</w> 1
pound</w> 1
bic</w> 1
stur 1
ceram 1
spencer</w> 1
entered</w> 1
vamp 1
organized</w> 1
âľĪ 1
pps</w> 1
tron</w> 1
mercedes</w> 1
noti 1
competitive</w> 1
dow</w> 1
ousness</w> 1
victor</w> 1
grilled</w> 1
nai</w> 1
putin</w> 1
abra 1
blame</w> 1
alexand 1
animal 1
decent</w> 1
pent 1
interior 1
:')</w> 1
butler</w> 1
ballet</w> 1
ðŁĴĶ</w> 1
albums</w> 1
downs</w> 1
lad</w> 1
sir 1
plain</w> 1
pers</w> 1
blonde</w> 1
disc</w> 1
pakistan 1
sement</w> 1
gaa</w> 1
wage</w> 1
chas 1
mani</w> 1
cops</w> 1
territ 1
lol 1
laughter</w> 1
rivers</w> 1
magnificent</w> 1
lamp</w> 1
wb 1
newsle 1
charts</w> 1
blessing</w> 1
punch</w> 1
longest</w> 1
floral</w> 1
cutie</w> 1
farewell</w> 1
stopping</w> 1
mbb</w> 1
bud</w> 1
cheese 1
decla 1
sim</w> 1
mcdonald</w> 1
deter 1
youth 1
tch 1
freder 1
kindle</w> 1
fern 1
ator 1
asleep</w> 1
pond</w> 1
sprint</w> 1
pounds</w> 1
lazy</w> 1
ghe 1
fundraising</w> 1
deadly</w> 1
grande</w> 1
doug</w> 1
hey 1
linda</w> 1
considering</w> 1
ium</w> 1
golden 1
vik 1
authors</w> 1
diss 1
ually</w> 1
appropriate</w> 1
morning 1
yle</w> 1
honoring</w> 1
folio</w> 1
bec</w> 1
rebec 1
finland</w> 1
formula</w> 1
cornwall</w> 1
shay 1
causing</w> 1
blend</w> 1
signal</w> 1
tent</w> 1
kashmir</w> 1
nationals</w> 1
harmony</w> 1
scout</w> 1
accessi 1
height</w> 1
medieval</w> 1
improvement</w> 1
kees</w> 1
practical</w> 1
card 1
depar 1
hun</w> 1
oming</w> 1
calgary</w> 1
stel</w> 1
bubble</w> 1
guru</w> 1
mah</w> 1
unexpe 1
nh</w> 1
eda</w> 1
meat 1
ige</w> 1
sio</w> 1
goddess</w> 1
inches</w> 1
tunes</w> 1
britt 1
stion</w> 1
raj</w> 1
âĻ«</w> 1
mercy</w> 1
ðŁĴĺ</w> 1
sends</w> 1
iest</w> 1
polici 1
vale</w> 1
reduced</w> 1
asap</w> 1
vijay</w> 1
defensive</w> 1
celebrations</w> 1
riders</w> 1
meditation</w> 1
harmon 1
ging 1
Â¡</w> 1
programming</w> 1
inau 1
sudden 1
mh</w> 1
replacement</w> 1
sku 1
jar</w> 1
grades</w> 1
tast 1
kitt 1
branding</w> 1
kaw 1
boot 1
fought</w> 1
pays</w> 1
gf</w> 1
ization</w> 1
hop 1
kk</w> 1
activist</w> 1
vend 1
coastal</w> 1
chaos</w> 1
ðŁĶ´</w> 1
seme 1
billboard</w> 1
lifting</w> 1
cumb 1
scal 1
ðŁĸ¤</w> 1
struck</w> 1
lv 1
indiedev</w> 1
beaten</w> 1
jungle</w> 1
alright</w> 1
destiny</w> 1
ming 1
kc 1
chances</w> 1
oman</w> 1
qatar</w> 1
craf 1
trained</w> 1
prix</w> 1
charm</w> 1
otive</w> 1
smu 1
ec</w> 1
anders</w> 1
handed</w> 1
alban 1
certainly</w> 1
arriving</w> 1
ize</w> 1
sai</w> 1
track 1
painter</w> 1
humble</w> 1
appointment</w> 1
headline</w> 1
managing</w> 1
mod</w> 1
aspe 1
andrea</w> 1
Ã¤ 1
ethiop 1
united 1
exist 1
bali</w> 1
kad 1
nt 1
dred</w> 1
rex</w> 1
recognize</w> 1
tampa</w> 1
beers</w> 1
atia</w> 1
heels</w> 1
note 1
transportation</w> 1
turtle</w> 1
rede 1
hiphop</w> 1
spicy</w> 1
spurs</w> 1
â¬ĩ 1
corp</w> 1
thern 1
toast</w> 1
hurry</w> 1
properties</w> 1
mage</w> 1
marco</w> 1
elements</w> 1
bouti 1
syndrome</w> 1
msg</w> 1
developer</w> 1
graders</w> 1
heim 1
resil 1
offices</w> 1
delay</w> 1
dimen 1
vintag 1
barbara</w> 1
ðŁĺ± 1
venezu 1
cular</w> 1
faced</w> 1
barn</w> 1
ðŁĺĨ</w> 1
survivor</w> 1
worm</w> 1
confused</w> 1
passionate</w> 1
Ø± 1
identify</w> 1
electricity</w> 1
souls</w> 1
bradley</w> 1
reportedly</w> 1
lunch 1
shelf</w> 1
elia</w> 1
sweet 1
smooth 1
employment</w> 1
amel</w> 1
manhattan</w> 1
steam 1
ounts</w> 1
yep</w> 1
living 1
une</w> 1
describe</w> 1
cares</w> 1
manila</w> 1
shawn</w> 1
acted</w> 1
bash</w> 1
steven 1
rest 1
petition</w> 1
divine</w> 1
welsh</w> 1
race 1
platinum</w> 1
ðŁĮ¸</w> 1
pb</w> 1
extraordinary</w> 1
solidarity</w> 1
mall 1
onion</w> 1
scheduled</w> 1
gameof 1
fergu 1
dems</w> 1
norm 1
pk</w> 1
trials</w> 1
policies</w> 1
publishing</w> 1
stole</w> 1
front 1
character 1
vania</w> 1
exce 1
stie</w> 1
sca</w> 1
residential</w> 1
sailing</w> 1
ðŁĶ¥ðŁĶ¥ðŁĶ¥</w> 1
sponsors</w> 1
thick</w> 1
champagne</w> 1
shepher 1
continuing</w> 1
venice</w> 1
perth</w> 1
nap</w> 1
aster 1
yak 1
unlimited</w> 1
choices</w> 1
neo</w> 1
hiv</w> 1
reporter</w> 1
brussels</w> 1
fold</w> 1
dys 1
semi 1
lawn</w> 1
italia</w> 1
wifi</w> 1
ask 1
emed</w> 1
frame 1
monitoring</w> 1
stead</w> 1
ida 1
grin 1
isa 1
flip</w> 1
restric 1
offensive</w> 1
attached</w> 1
dish 1
why 1
phillips</w> 1
greet 1
pals</w> 1
mixtape</w> 1
vou 1
fielder</w> 1
spark</w> 1
alberta</w> 1
glen</w> 1
cash 1
sri 1
uri 1
rodri 1
entrepreneurs</w> 1
climatechange</w> 1
psy</w> 1
dle 1
ements</w> 1
linked</w> 1
netherlands</w> 1
accidentally</w> 1
opposition</w> 1
velvet</w> 1
rays</w> 1
cw</w> 1
omo</w> 1
mf</w> 1
lmfao</w> 1
newsletter</w> 1
:) 1
toilet</w> 1
literature</w> 1
disp 1
philip</w> 1
uniform</w> 1
suddenly</w> 1
header</w> 1
cooler</w> 1
---</w> 1
proud 1
brig 1
nissan</w> 1
scientist</w> 1
jah</w> 1
concentr 1
packs</w> 1
appointed</w> 1
soap</w> 1
engage</w> 1
chose</w> 1
âĻ¡ 1
setup</w> 1
jealous</w> 1
harry 1
gation</w> 1
tunnel</w> 1
temp</w> 1
oscars</w> 1
decade</w> 1
recommended</w> 1
children 1
aba</w> 1
anxiety</w> 1
vements</w> 1
salon</w> 1
photoo 1
organiz 1
machines</w> 1
abs</w> 1
ville 1
hype</w> 1
tiff 1
emerging</w> 1
avgeek</w> 1
[#</w> 1
contribution</w> 1
brady</w> 1
resto 1
gmail</w> 1
fitz 1
photoshoot</w> 1
helmet</w> 1
ht 1
elegant</w> 1
uganda</w> 1
nursing</w> 1
orleans</w> 1
penn</w> 1
nah</w> 1
footage</w> 1
ema</w> 1
wo</w> 1
wad 1
concerns</w> 1
vere 1
remark 1
whoever</w> 1
strang 1
pt 1
quit</w> 1
shang 1
history 1
sick 1
permanent</w> 1
illness</w> 1
cold 1
vision 1
hem</w> 1
arrow</w> 1
convic 1
pink 1
occup 1
bald 1
exhau 1
uof 1
amo</w> 1
ont</w> 1
ãĥ»</w> 1
adopt</w> 1
laid</w> 1
smoked</w> 1
interpre 1
essenti 1
associated</w> 1
bd</w> 1
bby 1
fier 1
install</w> 1
diplom 1
conditi 1
cf</w> 1
wak 1
anya</w> 1
graci 1
fisher 1
sss</w> 1
apr</w> 1
ilit 1
musician</w> 1
symphony</w> 1
cord</w> 1
hack</w> 1
legi 1
lv</w> 1
blessings</w> 1
humor</w> 1
scra 1
eti 1
minster</w> 1
travelling</w> 1
bush 1
jewellery</w> 1
lime</w> 1
!!! 1
pregnant</w> 1
pee</w> 1
lob 1
capital 1
ipa</w> 1
pencil</w> 1
labor 1
ducks</w> 1
proudly</w> 1
wedding 1
derek</w> 1
mw</w> 1
peg</w> 1
valentine 1
angu 1
retreat</w> 1
prospect</w> 1
danger</w> 1
vulner 1
upset</w> 1
,#</w> 1
srk</w> 1
xim 1
thursday 1
nfl 1
kisses</w> 1
reds</w> 1
crack 1
reward</w> 1
cu</w> 1
kok</w> 1
mete 1
abandoned</w> 1
itt</w> 1
meals</w> 1
spell</w> 1
stanbul</w> 1
delays</w> 1
rum</w> 1
leop 1
gum</w> 1
nova</w> 1
superman</w> 1
chick</w> 1
mis</w> 1
dramatic</w> 1
innocent</w> 1
rounds</w> 1
rec</w> 1
autism</w> 1
bangladesh</w> 1
moral</w> 1
movie 1
spoo 1
kla 1
âĥ£ 1
outing</w> 1
messi</w> 1
abroad</w> 1
lookin</w> 1
aim</w> 1
qi</w> 1
stack</w> 1
collage</w> 1
à¯ 1
hudson</w> 1
scan</w> 1
hoe</w> 1
chau 1
occur 1
commander</w> 1
holes</w> 1
ðŁİĦ</w> 1
bias</w> 1
von 1
sticker</w> 1
mak 1
responsibility</w> 1
columbus</w> 1
saint 1
edmon 1
racism</w> 1
farms</w> 1
wen</w> 1
gulf</w> 1
mayo</w> 1
!!!!!!!! 1
corporation</w> 1
bachel 1
ela 1
internal</w> 1
jeep</w> 1
follows</w> 1
dialogue</w> 1
derer</w> 1
smartphone</w> 1
helen</w> 1
richmond</w> 1
equity</w> 1
sland</w> 1
bg</w> 1
near 1
avi</w> 1
memphis</w> 1
weir 1
discussed</w> 1
badge</w> 1
pup</w> 1
mistake</w> 1
phenomen 1
unite</w> 1
ðŁĽ 1
depic 1
rides</w> 1
inaugu 1
nat</w> 1
softwitter</w> 1
combination</w> 1
gospel</w> 1
âļ¾ 1
admission</w> 1
retrogaming</w> 1
ðŁĲ¾</w> 1
schu 1
mbo</w> 1
junction</w> 1
alarm</w> 1
à¦ 1
grac 1
khali 1
kul 1
male 1
caption</w> 1
wish 1
tere 1
corps</w> 1
rubber</w> 1
playstation</w> 1
erin</w> 1
efficient</w> 1
lor</w> 1
jokes</w> 1
inary</w> 1
norman</w> 1
luis</w> 1
inaugural</w> 1
ched 1
âļ½ï¸ı 1
dip</w> 1
toe</w> 1
strat 1
aac</w> 1
amu 1
pier</w> 1
cott</w> 1
command</w> 1
tten 1
snoo 1
cube</w> 1
closes</w> 1
classical</w> 1
sword</w> 1
expression</w> 1
reaching</w> 1
napp 1
cost 1
affect</w> 1
rico</w> 1
gif 1
breathe</w> 1
tribe</w> 1
ortho 1
hay</w> 1
lg</w> 1
fries</w> 1
nm</w> 1
hiding</w> 1
richards</w> 1
ende 1
micro</w> 1
capitol</w> 1
copy 1
rom 1
regime</w> 1
maryland</w> 1
taxi</w> 1
dial</w> 1
embarra 1
unbeliev 1
cht</w> 1
vs 1
elimin 1
odd</w> 1
penny</w> 1
soundtrack</w> 1
lings</w> 1
transition</w> 1
remaining</w> 1
ais</w> 1
malik</w> 1
?!?</w> 1
random 1
defend</w> 1
ultra 1
trum</w> 1
dancer</w> 1
stol 1
drive 1
aver</w> 1
roast</w> 1
definition</w> 1
sean 1
excitement</w> 1
particul 1
surely</w> 1
shav 1
bery</w> 1
dishes</w> 1
comm</w> 1
isol 1
iam</w> 1
obli 1
ghost 1
hughes</w> 1
chiefs</w> 1
bas</w> 1
conservative</w> 1
special 1
femin 1
shri</w> 1
nancy</w> 1
intel</w> 1
tune 1
ðŁĩª 1
joel</w> 1
ggle</w> 1
moto</w> 1
ðŁĺĶ</w> 1
buck</w> 1
dag 1
anticip 1
montana</w> 1
guid 1
frog</w> 1
ecraft</w> 1
ope</w> 1
drives</w> 1
numer 1
xy</w> 1
colorful</w> 1
wednesdaywisdom</w> 1
illumin 1
beyon 1
inaugur 1
deeply</w> 1
prefer</w> 1
fortune</w> 1
cooked</w> 1
tible</w> 1
âĺķ 1
sweater</w> 1
itter</w> 1
tty 1
ui</w> 1
gie 1
complic 1
~~ 1
taxes</w> 1
cups</w> 1
diverse</w> 1
samanth 1
âłĢâłĢ 1
baking</w> 1
symp 1
wai 1
behalf</w> 1
mercur 1
travels</w> 1
ðŁİīðŁİ 1
oria</w> 1
engaged</w> 1
jumping</w> 1
retired</w> 1
naked</w> 1
puni 1
speedway</w> 1
sciences</w> 1
rehearsal</w> 1
onym 1
dyou 1
plates</w> 1
rati 1
krish 1
jazz 1
carol</w> 1
raf</w> 1
penalty</w> 1
timeline</w> 1
ruby</w> 1
engineers</w> 1
raf 1
belle</w> 1
dose</w> 1
cheon</w> 1
escap 1
meg 1
rank</w> 1
ord</w> 1
megan</w> 1
merch</w> 1
eclipse</w> 1
âĺºï¸ı 1
pledge</w> 1
kirk</w> 1
persi 1
leicester</w> 1
sak 1
wk 1
safely</w> 1
yyy</w> 1
jet 1
promised</w> 1
jc</w> 1
enne</w> 1
noah</w> 1
reno 1
rea</w> 1
ðŁĺĤðŁĺĤðŁĺĤðŁĺĤ</w> 1
trail 1
ðŁĳĢ 1
fd</w> 1
sooo</w> 1
rimin 1
wk</w> 1
à¸² 1
ial 1
xox 1
biscu 1
dale 1
fandom</w> 1
participating</w> 1
flag 1
privilege</w> 1
peach</w> 1
machine 1
boston 1
gross</w> 1
og 1
miracle</w> 1
adoption</w> 1
uss 1
monsters</w> 1
beij 1
clarke</w> 1
pushing</w> 1
praying</w> 1
aro</w> 1
dn 1
ellis</w> 1
apollo</w> 1
odds</w> 1
refugee</w> 1
tow 1
bp</w> 1
ðŁĩ¬ðŁĩ§</w> 1
hend 1
appeared</w> 1
membership</w> 1
pean 1
dum</w> 1
violent</w> 1
vy 1
potatoes</w> 1
aww</w> 1
greetings</w> 1
tts</w> 1
acon</w> 1
shane</w> 1
photographed</w> 1
crab</w> 1
temperatures</w> 1
cuba</w> 1
cfc</w> 1
welcom 1
hel</w> 1
innings</w> 1
mk 1
code 1
knock</w> 1
grass 1
swedish</w> 1
pta</w> 1
icky</w> 1
vat 1
lining</w> 1
sq</w> 1
sap</w> 1
arc</w> 1
announcing</w> 1
skins</w> 1
cityof 1
bring 1
cox</w> 1
gamer</w> 1
itarian</w> 1
ida</w> 1
hd 1
rosse</w> 1
sadly</w> 1
geo</w> 1
âļ¡ï¸ı</w> 1
tags</w> 1
father 1
change 1
lance</w> 1
whiskey</w> 1
adelaide</w> 1
tec</w> 1
stickers</w> 1
market 1
classy</w> 1
badass</w> 1
florence</w> 1
liner</w> 1
frost</w> 1
kate 1
acon 1
scandal</w> 1
essex</w> 1
ðŁĺı 1
vivi 1
drill</w> 1
bloggers</w> 1
recommend 1
dha 1
acres</w> 1
roma</w> 1
buy 1
grocer 1
eria</w> 1
mahar 1
ffer</w> 1
patterns</w> 1
veri 1
compu 1
stev 1
anga</w> 1
mentor</w> 1
doo</w> 1
itali 1
cdnpoli</w> 1
only 1
conduct</w> 1
electro 1
def</w> 1
whale</w> 1
preparation</w> 1
bicycle</w> 1
viral</w> 1
turnout</w> 1
brass</w> 1
quad 1
hospitality</w> 1
packaging</w> 1
dency</w> 1
cemetery</w> 1
aboard</w> 1
dreaming</w> 1
picture 1
tall 1
invent 1
admi 1
oe</w> 1
temps</w> 1
quan 1
fundam 1
promp 1
residence</w> 1
mud</w> 1
souri</w> 1
âĦ¢</w> 1
graffiti</w> 1
gif</w> 1
dnd</w> 1
comp</w> 1
swar 1
peeps</w> 1
palestine</w> 1
devils</w> 1
sang</w> 1
assistance</w> 1
bike 1
mississi 1
interviewed</w> 1
nephew</w> 1
drums</w> 1
vand 1
gentlemen</w> 1
nsw</w> 1
insta</w> 1
lebanon</w> 1
eeee 1
olivia</w> 1
very 1
rough 1
industries</w> 1
mation</w> 1
ðŁĺĴ</w> 1
barrel</w> 1
nay 1
pops</w> 1
modern 1
illy 1
arest</w> 1
onents</w> 1
protecting</w> 1
vans</w> 1
eo</w> 1
vikings</w> 1
restaurants</w> 1
reck 1
jackie</w> 1
andrew 1
willing</w> 1
heath</w> 1
citizen 1
discrimin 1
à¹Ī</w> 1
stuart</w> 1
mys</w> 1
hip 1
transp 1
"?</w> 1
tex</w> 1
sushi</w> 1
ked 1
crossed</w> 1
distur 1
pedia</w> 1
fate</w> 1
somehow</w> 1
moth</w> 1
processing</w> 1
iss 1
rin</w> 1
uts</w> 1
yyc</w> 1
vert</w> 1
lgbt 1
reid</w> 1
onto 1
arabia</w> 1
habitat</w> 1
== 1
streak</w> 1
simpson</w> 1
addiction</w> 1
wimble 1
delivers</w> 1
challenging</w> 1
ðŁİ¶ 1
franch 1
edu 1
sme 1
aids</w> 1
hurst</w> 1
tham 1
tarian</w> 1
remembered</w> 1
palestinian</w> 1
fees</w> 1
trum 1
sketch 1
uru</w> 1
fitting</w> 1
jesse</w> 1
ðŁĶ¥ðŁĶ¥</w> 1
-------- 1
bach 1
icia</w> 1
colored</w> 1
dah</w> 1
associate</w> 1
intel 1
seller</w> 1
pu</w> 1
stuffed</w> 1
acs</w> 1
bs 1
shin</w> 1
cooperation</w> 1
certificate</w> 1
abu</w> 1
ingredients</w> 1
rev</w> 1
inge 1
elder 1
christian 1
bundle</w> 1
thic</w> 1
dirt</w> 1
beijing</w> 1
commit</w> 1
teddy</w> 1
edu</w> 1
today 1
sfield</w> 1
wyn 1
confirms</w> 1
loo</w> 1
jv</w> 1
eness</w> 1
alpha 1
virus</w> 1
arium</w> 1
grind</w> 1
bridges</w> 1
introduction</w> 1
polls</w> 1
bacter 1
zach</w> 1
terminal</w> 1
raiders</w> 1
flavor</w> 1
zombie</w> 1
vod 1
spreading</w> 1
gameofthrones</w> 1
efficiency</w> 1
lately</w> 1
alem</w> 1
tweet 1
crimes</w> 1
cler 1
dey</w> 1
dged</w> 1
hyun 1
payments</w> 1
circus</w> 1
ðŁĺŃðŁĺŃ</w> 1
missouri</w> 1
lub</w> 1
episodes</w> 1
cage</w> 1
pos</w> 1
matching</w> 1
tumblr</w> 1
lined</w> 1
gest 1
ambi 1
narr 1
ington 1
regul 1
blown</w> 1
isle</w> 1
coco 1
ondon</w> 1
joshua</w> 1
touring</w> 1
sma</w> 1
sausage</w> 1
bestfriend</w> 1
boeing</w> 1
desire</w> 1
savage</w> 1
rapper</w> 1
devo 1
tear</w> 1
takeover</w> 1
cowboys</w> 1
poker</w> 1
parag 1
ppe</w> 1
hint</w> 1
wears</w> 1
seth</w> 1
roles</w> 1
lanc 1
manga</w> 1
format</w> 1
flyer</w> 1
cay 1
moor</w> 1
bake</w> 1
splash</w> 1
vad 1
kerala</w> 1
proceeds</w> 1
silly</w> 1
reflection</w> 1
distr 1
wid 1
suit 1
civic</w> 1
yankees</w> 1
byn</w> 1
migration</w> 1
distin 1
orch 1
femini 1
qualifying</w> 1
turi 1
obe 1
hundred</w> 1
crap</w> 1
wang</w> 1
mathemat 1
bure 1
exposure</w> 1
ferguson</w> 1
semester</w> 1
reserv 1
plym 1
ahu 1
facial</w> 1
wax</w> 1
worried</w> 1
cab</w> 1
vio 1
asa</w> 1
cod</w> 1
topics</w> 1
pcs</w> 1
halo</w> 1
rescued</w> 1
horizon</w> 1
ark 1
âļª 1
holly</w> 1
elf</w> 1
ulti 1
pup 1
qualified</w> 1
attendance</w> 1
atively</w> 1
destroy</w> 1
yc</w> 1
forth</w> 1
photooftheday</w> 1
cents</w> 1
iceland</w> 1
measures</w> 1
desk 1
portfolio</w> 1
articles</w> 1
directors</w> 1
datab 1
ew 1
creepy</w> 1
ounding</w> 1
honoured</w> 1
mist</w> 1
jit 1
mentioned</w> 1
portable</w> 1
itic</w> 1
dann 1
fridayfeeling</w> 1
amid</w> 1
tiger 1
scrip 1
helicopter</w> 1
hardware</w> 1
explor 1
workplace</w> 1
austria</w> 1
beatles</w> 1
bernar 1
spider 1
disco</w> 1
cult</w> 1
limits</w> 1
shortly</w> 1
final 1
ninja</w> 1
luke 1
lebron</w> 1
walmart</w> 1
oil 1
vanilla</w> 1
shire 1
yeg</w> 1
aky</w> 1
cs 1
bler</w> 1
collected</w> 1
tg</w> 1
rolled</w> 1
specials</w> 1
bff</w> 1
pierre</w> 1
shim 1
vier</w> 1
flashback</w> 1
restoration</w> 1
individuals</w> 1
prod</w> 1
freaking</w> 1
turer</w> 1
oa</w> 1
refre 1
moroc 1
greet</w> 1
reyn 1
careful</w> 1
ouring</w> 1
ush 1
isd</w> 1
gill</w> 1
view 1
thunderstorm</w> 1
bled</w> 1
picnic</w> 1
guardi 1
pig 1
ark</w> 1
sylvania</w> 1
banned</w> 1
ucl 1
vijay 1
orium</w> 1
avengers</w> 1
believes</w> 1
eur</w> 1
monument</w> 1
concerned</w> 1
labs</w> 1
berg 1
aap 1
vish 1
singles</w> 1
cancel 1
zel</w> 1
arab</w> 1
ruth</w> 1
tooth</w> 1
arta</w> 1
shaf 1
chairs</w> 1
rack</w> 1
diseases</w> 1
crowd 1
cly 1
flex</w> 1
christma 1
artificial</w> 1
tomat 1
fine 1
draws</w> 1
advocate</w> 1
france 1
ÙĬ 1
ðŁĺ³ 1
heavy 1
sour</w> 1
comprehen 1
noble</w> 1
aap</w> 1
hindu</w> 1
coral</w> 1
gars</w> 1
owen</w> 1
nl 1
stall</w> 1
yellow 1
marina</w> 1
inver 1
support 1
tough 1
promises</w> 1
pie 1
masterpiece</w> 1
score 1
force 1
mortg 1
cryptocurrency</w> 1
ox</w> 1
rors</w> 1
rockin</w> 1
provin 1
hog 1
nostal 1
oakland</w> 1
patrick 1
inclusion</w> 1
traffic 1
ahmed</w> 1
aha 1
luxury 1
consecu 1
demon</w> 1
âĸº</w> 1
blowing</w> 1
stag 1
:"</w> 1
encourage</w> 1
bene 1
skull</w> 1
dodge</w> 1
buster</w> 1
kinson</w> 1
witne 1
error</w> 1
lowest</w> 1
fellow 1
à° 1
shre 1
blur 1
virgin</w> 1
composer</w> 1
slip</w> 1
mornings</w> 1
gains</w> 1
table 1
grain</w> 1
arist</w> 1
brazilian</w> 1
wwe 1
tues</w> 1
ribbon</w> 1
anag 1
dist</w> 1
sacrif 1
embrace</w> 1
entrepreneur 1
affili 1
deo</w> 1
tali 1
tourist</w> 1
fatal</w> 1
ìĬ 1
automatic</w> 1
ðŁĩµ 1
weak 1
welfare</w> 1
confirm</w> 1
benjamin</w> 1
fights</w> 1
alleged</w> 1
mead 1
struggling</w> 1
prosecu 1
chef 1
Ã¨ 1
proposal</w> 1
ern</w> 1
ðŁĺĦ 1
dyk</w> 1
ongs</w> 1
hong 1
mack</w> 1
melon</w> 1
onent</w> 1
rush 1
dap 1
toler 1
propag 1
cze 1
translation</w> 1
wallet</w> 1
cottage</w> 1
sail</w> 1
constitution</w> 1
ðŁĴĢ</w> 1
munici 1
favor</w> 1
stormhour</w> 1
ih 1
ðŁĺĮ</w> 1
approaching</w> 1
pinned</w> 1
jed 1
nigerian</w> 1
nach 1
shat 1
particularly</w> 1
mcdon 1
cameras</w> 1
annie</w> 1
administr 1
heat 1
electrical</w> 1
charming</w> 1
gibson</w> 1
boutique</w> 1
exposed</w> 1
actor 1
pillow</w> 1
beaches</w> 1
genuine</w> 1
margaret</w> 1
bennett</w> 1
louisi 1
positions</w> 1
ely 1
shiny</w> 1
tention</w> 1
architect</w> 1
rental</w> 1
acqui 1
google 1
subway</w> 1
moment 1
ðŁļ¨ 1
rim</w> 1
methods</w> 1
cycli 1
norfolk</w> 1
ÙĪ 1
overwhel 1
rapid</w> 1
wear 1
happybirthday</w> 1
progressive</w> 1
ðŁĴ¥ 1
cogn 1
papa</w> 1
fool</w> 1
philosophy</w> 1
polar</w> 1
jimmy 1
wig</w> 1
ðŁĴĭ 1
operating</w> 1
reduction</w> 1
phi</w> 1
flags</w> 1
tothe 1
odi 1
ares</w> 1
koo 1
kang 1
arkansas</w> 1
ashton</w> 1
wimbledon</w> 1
scifi</w> 1
attractive</w> 1
mississippi</w> 1
logists</w> 1
ralph</w> 1
label 1
graduates</w> 1
maha 1
hometown</w> 1
âľĮï¸ı</w> 1
founded</w> 1
onthe 1
liz</w> 1
transl 1
minimum</w> 1
presti 1
tam</w> 1
generations</w> 1
rebel</w> 1
journalists</w> 1
param 1
mcm</w> 1
acrylic</w> 1
deaths</w> 1
tesla</w> 1
wt</w> 1
bryant</w> 1
jerus 1
istanbul</w> 1
muhammad</w> 1
riley</w> 1
kris</w> 1
workshops</w> 1
iso</w> 1
counts</w> 1
stret 1
protected</w> 1
trinity</w> 1
manual</w> 1
rhin 1
ril 1
pleasant</w> 1
lemon 1
nerd</w> 1
harder</w> 1
darren</w> 1
bury 1
rah 1
basis</w> 1
migu 1
occasion</w> 1
lists</w> 1
âĿ¤ï¸ıâĿ¤ï¸ıâĿ¤ï¸ı</w> 1
eb 1
decre 1
hampton</w> 1
ìĿ´ 1
travis</w> 1
transform</w> 1
puerto</w> 1
nhl 1
avoc 1
trips</w> 1
unexpected</w> 1
vet 1
didyou 1
barber</w> 1
stages</w> 1
mson</w> 1
represented</w> 1
fort 1
lal 1
pple</w> 1
nicely</w> 1
ignore</w> 1
quil 1
quinn</w> 1
hk</w> 1
carrier</w> 1
reminded</w> 1
among 1
passenger</w> 1
ellen</w> 1
guez</w> 1
scape</w> 1
mural</w> 1
youngest</w> 1
mash 1
dill 1
routine</w> 1
stainless</w> 1
jackson 1
gandhi</w> 1
thal</w> 1
oners</w> 1
editorial</w> 1
conversations</w> 1
sdale</w> 1
automation</w> 1
ike 1
à¸²à¸ 1
ðŁĩª</w> 1
haul</w> 1
laying</w> 1
mentions</w> 1
amen</w> 1
abortion</w> 1
ibi 1
counties</w> 1
catherine</w> 1
mands</w> 1
jame 1
roller</w> 1
aut</w> 1
nam</w> 1
ological</w> 1
ception</w> 1
ranking</w> 1
toxic</w> 1
snacks</w> 1
victorian</w> 1
bangkok</w> 1
psychology</w> 1
reg</w> 1
angela</w> 1
respond</w> 1
style 1
sophie</w> 1
dakota</w> 1
achieved</w> 1
marked</w> 1
imperial</w> 1
inas</w> 1
gloves</w> 1
slim</w> 1
confident</w> 1
attacked</w> 1
gger 1
lonely</w> 1
valentinesday</w> 1
reb 1
craftbeer</w> 1
origin</w> 1
zimbab 1
ceiling</w> 1
teens</w> 1
otherwise</w> 1
wb</w> 1
fers</w> 1
daysof 1
advisor</w> 1
yah</w> 1
âĻª</w> 1
ender</w> 1
republicans</w> 1
ava</w> 1
skirt</w> 1
pipel 1
chie</w> 1
jane 1
jax</w> 1
ðŁĺĭ 1
âľĬ 1
jays</w> 1
brett</w> 1
balo 1
crucial</w> 1
dhar 1
asis</w> 1
deau</w> 1
lloyd</w> 1
chatting</w> 1
âĿĦï¸ı</w> 1
relay</w> 1
remarkable</w> 1
ns 1
wet 1
brisbane</w> 1
ðŁĶ´ 1
tionally</w> 1
fk</w> 1
layer</w> 1
household</w> 1
consecutive</w> 1
esis</w> 1
pendant</w> 1
stir 1
critic 1
sugar 1
photoshop</w> 1
pares</w> 1
artistic</w> 1
dodgers</w> 1
cun 1
crafted</w> 1
amend 1
boat 1
âŃĲï¸ı 1
egyptian</w> 1
saw 1
trage 1
smaller</w> 1
oxy 1
paired</w> 1
next 1
ires</w> 1
taco</w> 1
oy</w> 1
uc</w> 1
sti</w> 1
aerial</w> 1
://</w> 1
dro</w> 1
dotcom</w> 1
ggins</w> 1
rpg</w> 1
aye</w> 1
lean 1
striker</w> 1
lobby</w> 1
protests</w> 1
priority</w> 1
congress 1
amate 1
invit 1
rington</w> 1
mommy</w> 1
thus</w> 1
allowing</w> 1
pioneer</w> 1
enforcement</w> 1
gori 1
talk 1
drag</w> 1
dumb</w> 1
bullet</w> 1
sange 1
ery 1
targets</w> 1
ðŁĩ¦ 1
heather</w> 1
consider 1
seafood</w> 1
vest</w> 1
risks</w> 1
%.</w> 1
pg 1
sacred</w> 1
heating</w> 1
kicked</w> 1
ttot</w> 1
.-</w> 1
chandi 1
coven 1
pool 1
pulse</w> 1
ia 1
roster</w> 1
shakespeare</w> 1
esa</w> 1
cargo</w> 1
peanut</w> 1
troop 1
action 1
tablet</w> 1
homework</w> 1
castle 1
struction</w> 1
musicians</w> 1
freezing</w> 1
butt 1
justinbieber</w> 1
jj 1
bahrain</w> 1
anthem</w> 1
audit 1
didyouknow</w> 1
navig 1
guidance</w> 1
âĸ¶ 1
turf</w> 1
nun 1
fications</w> 1
yemen</w> 1
charging</w> 1
xc</w> 1
broncos</w> 1
subur 1
pale</w> 1
boring</w> 1
amongst</w> 1
forthe 1
emper 1
omfg</w> 1
pj 1
expecting</w> 1
ðŁĴ«</w> 1
stl</w> 1
admin</w> 1
expectations</w> 1
swan</w> 1
shoot 1
ooooo</w> 1
minent</w> 1
ãĢĲ</w> 1
wallace</w> 1
stang</w> 1
saturday 1
adopted</w> 1
doubles</w> 1
homie</w> 1
omez</w> 1
dhan 1
venture</w> 1
surrounding</w> 1
file 1
mobility</w> 1
dees</w> 1
wski</w> 1
brooke</w> 1
embro 1
remembers</w> 1
kara</w> 1
testim 1
botan 1
mtv</w> 1
sacrifice</w> 1
jerusalem</w> 1
dl 1
Â´</w> 1
properly</w> 1
ilion</w> 1
asi</w> 1
legit</w> 1
cope</w> 1
mcla 1
recycling</w> 1
larger</w> 1
ðŁĴĵ</w> 1
patric 1
generous</w> 1
jared</w> 1
pf</w> 1
molly</w> 1
thomas 1
judges</w> 1
hb</w> 1
sorts</w> 1
blvd</w> 1
oven</w> 1
entering</w> 1
planes</w> 1
beet 1
integration</w> 1
booked</w> 1
freed 1
vern</w> 1
ashes</w> 1
topped</w> 1
depot</w> 1
welcomed</w> 1
rena</w> 1
mick</w> 1
dand 1
seeks</w> 1
gamer 1
rankings</w> 1
rene</w> 1
mut 1
whisky</w> 1
firefighters</w> 1
gues</w> 1
gather</w> 1
tourney</w> 1
demen 1
yang</w> 1
newton</w> 1
automotive</w> 1
backyard</w> 1
detailed</w> 1
mist 1
tobac 1
fiber</w> 1
unusual</w> 1
gratitude</w> 1
spare</w> 1
neys</w> 1
:*</w> 1
peri 1
floating</w> 1
finalist</w> 1
donating</w> 1
dress 1
broad</w> 1
bethe 1
economics</w> 1
taiwan</w> 1
edwards</w> 1
plug</w> 1
prairi 1
valen 1
baba</w> 1
fad 1
anas</w> 1
harper</w> 1
disorder</w> 1
applied</w> 1
patt 1
bikin 1
liver</w> 1
curi 1
caroline</w> 1
anner</w> 1
julian</w> 1
walking 1
malcol 1
screenshot</w> 1
coding</w> 1
skincare</w> 1
activists</w> 1
mysterious</w> 1
exact</w> 1
blocking</w> 1
mercury</w> 1
batter 1
dump 1
âľĮ</w> 1
ense 1
lish 1
ridiculous</w> 1
protesters</w> 1
ðŁĻĪ 1
lust</w> 1
sweat</w> 1
ass 1
alike</w> 1
cody</w> 1
rements</w> 1
winds 1
aspir 1
vienna</w> 1
pray 1
...@</w> 1
boi</w> 1
candle</w> 1
assists</w> 1
tee 1
derson</w> 1
pony</w> 1
fence</w> 1
conspir 1
âĺħâĺħ 1
ooth</w> 1
epic 1
barely</w> 1
aunt</w> 1
bam</w> 1
diamonds</w> 1
endless</w> 1
screens</w> 1
cancer 1
gro</w> 1
pst</w> 1
prospec 1
mosque</w> 1
helpful</w> 1
ouri 1
brother 1
gujar 1
cristi 1
inez</w> 1
towers</w> 1
addresses</w> 1
gray 1
burton</w> 1
retweeted</w> 1
ðŁ¤Ķ 1
nity</w> 1
duck 1
supervis 1
joan</w> 1
kinder 1
sanctu 1
pied</w> 1
âı°</w> 1
łï¸ı</w> 1
mati 1
revenge</w> 1
cester</w> 1
elife</w> 1
designers</w> 1
backed</w> 1
boli 1
weight 1
couch</w> 1
sures</w> 1
sits</w> 1
shrimp</w> 1
lagos</w> 1
authorities</w> 1
osity</w> 1
holly 1
computing</w> 1
factors</w> 1
abe</w> 1
panels</w> 1
ramad 1
sentence</w> 1
mission 1
holm</w> 1
rb 1
dads</w> 1
shanghai</w> 1
money 1
sheets</w> 1
skate</w> 1
threw</w> 1
cupcakes</w> 1
infinite</w> 1
lis</w> 1
practicing</w> 1
essay</w> 1
kai 1
asci 1
mob</w> 1
ugh</w> 1
holmes</w> 1
regg 1
ikh</w> 1
mock</w> 1
collections</w> 1
pep 1
ova</w> 1
salt 1
nandez</w> 1
coy 1
threats</w> 1
texts</w> 1
cinnam 1
pregnancy</w> 1
pending</w> 1
stamp</w> 1
flower 1
gis</w> 1
agreed</w> 1
payne</w> 1
rover</w> 1
phra 1
soft 1
ffin 1
fathers</w> 1
passengers</w> 1
aways</w> 1
ala 1
hes</w> 1
livan</w> 1
ins 1
samuel</w> 1
ingui 1
hof</w> 1
jj</w> 1
chennai</w> 1
catal 1
omic</w> 1
heath 1
niece</w> 1
pumped</w> 1
integrated</w> 1
arel</w> 1
nom</w> 1
productivity</w> 1
wanting</w> 1
visa</w> 1
diana</w> 1
twil 1
itv</w> 1
camps</w> 1
rowing</w> 1
dley</w> 1
blackand 1
guards</w> 1
bells</w> 1
reverse</w> 1
vibe</w> 1
ricky</w> 1
moss</w> 1
nyt</w> 1
âĺĢï¸ı 1
elle 1
troy</w> 1
cudd 1
evan 1
womens 1
foto</w> 1
mistakes</w> 1
wicked</w> 1
mil</w> 1
cled</w> 1
memes</w> 1
cosmo 1
scholar</w> 1
reno</w> 1
ðŁĺĢ 1
vents</w> 1
#âĢ¦</w> 1
terrorists</w> 1
casey</w> 1
cardinals</w> 1
ðŁĺĬðŁĺĬ 1
venezuela</w> 1
bola</w> 1
literacy</w> 1
tw</w> 1
eno</w> 1
contains</w> 1
austin 1
financi 1
evan</w> 1
harvard</w> 1
originally</w> 1
chevro 1
herald</w> 1
nottingham</w> 1
managers</w> 1
âŀ¡</w> 1
accepting</w> 1
walsh</w> 1
tutorial</w> 1
entrepreneurship</w> 1
yacht</w> 1
requirements</w> 1
glenn</w> 1
pede 1
unfortunately</w> 1
aching</w> 1
daisy</w> 1
gian</w> 1
nightmare</w> 1
âĿĹ 1
rina</w> 1
bart</w> 1
emails</w> 1
opposite</w> 1
whom</w> 1
sake</w> 1
puzzle</w> 1
dashi 1
party 1
blanket</w> 1
buses</w> 1
lore 1
beauty 1
reason 1
punjab</w> 1
windsor</w> 1
functional</w> 1
existing</w> 1
hello 1
glimp 1
convin 1
lak 1
screaming</w> 1
rebecca</w> 1
bliss</w> 1
northwest</w> 1
infinity</w> 1
cosmetics</w> 1
pulling</w> 1
coffee 1
pling</w> 1
opho 1
colombia</w> 1
interiordesign</w> 1
(+</w> 1
emotions</w> 1
sac</w> 1
sunglasses</w> 1
saves</w> 1
df 1
sixth</w> 1
aly</w> 1
ðŁĺ»</w> 1
deen</w> 1
devast 1
politicians</w> 1
lacrosse</w> 1
gu</w> 1
pei</w> 1
java</w> 1
combine</w> 1
coalition</w> 1
erts</w> 1
surviv 1
chad</w> 1
strian</w> 1
nn</w> 1
devi 1
counc 1
concern</w> 1
controller</w> 1
breast 1
jury</w> 1
tum 1
introduces</w> 1
ladi 1
mobile 1
alz 1
steady</w> 1
nurses</w> 1
hacking</w> 1
online 1
ocean 1
ðŁİĦ 1
aam 1
juven 1
icc</w> 1
louisiana</w> 1
arte</w> 1
streetart</w> 1
ison 1
wns</w> 1
frm</w> 1
panda</w> 1
noir</w> 1
maintain</w> 1
delay 1
symptoms</w> 1
thorn 1
geome 1
tern</w> 1
carried</w> 1
pru 1
panor 1
assy</w> 1
peru</w> 1
cloud 1
spra 1
pedi 1
este 1
tagged</w> 1
ðŁĺĿ</w> 1
shadows</w> 1
nazi</w> 1
Ø§ÙĦ 1
corri 1
âĻ¥âĻ¥ 1
jad 1
ðŁĩ« 1
formal</w> 1
spoken</w> 1
ðŁĮŀ</w> 1
enjoy 1
lopez</w> 1
outlook</w> 1
inho</w> 1
wander 1
Ùħ 1
maya</w> 1
pee 1
dine</w> 1
ãĢĳ</w> 1
briefing</w> 1
supporter</w> 1
arily</w> 1
ghters</w> 1
naturally</w> 1
doctorwho</w> 1
jen</w> 1
var</w> 1
newyear</w> 1
rese 1
simm 1
rex 1
consequ 1
tomatoes</w> 1
burst</w> 1
bravo</w> 1
burgers</w> 1
cracking</w> 1
northeast</w> 1
biom 1
mushroom</w> 1
marque 1
double 1
nier</w> 1
vag 1
twenty</w> 1
keyboard</w> 1
winni 1
jamaica</w> 1
parish</w> 1
:- 1
mentalhealth</w> 1
alizing</w> 1
render</w> 1
waking</w> 1
ðŁİĤ 1
gly 1
nathan 1
washing</w> 1
melissa</w> 1
jung</w> 1
loyal</w> 1
chili</w> 1
songwriter</w> 1
guitarist</w> 1
bowie</w> 1
neighbors</w> 1
onymous</w> 1
asset</w> 1
tai</w> 1
headquarters</w> 1
ðŁĮĪ</w> 1
ihear 1
cigare 1
surg 1
)"</w> 1
repl 1
darling</w> 1
ðŁĻĦ</w> 1
zak 1
sare 1
ãħĭ 1
mickey</w> 1
warehouse</w> 1
massage</w> 1
inees</w> 1
didnt</w> 1
iw 1
hurts</w> 1
engaging</w> 1
magic 1
womenin 1
kitten</w> 1
mors</w> 1
cart</w> 1
titans</w> 1
colleague</w> 1
competing</w> 1
eran</w> 1
khal 1
marble</w> 1
demand 1
delight</w> 1
etary</w> 1
blizz 1
louise</w> 1
mls</w> 1
finishes</w> 1
experiment</w> 1
conducted</w> 1
electronics</w> 1
itters</w> 1
caring</w> 1
whats</w> 1
symbol</w> 1
jung 1
ecu 1
pix</w> 1
context</w> 1
charger</w> 1
ðŁĺĩ</w> 1
reig 1
frag 1
ëĭ 1
chad 1
true 1
kerry</w> 1
defending</w> 1
aint</w> 1
auton 1
checkout</w> 1
barnes</w> 1
lessly</w> 1
dt 1
mme</w> 1
cloudy</w> 1
secondary</w> 1
arez</w> 1
_:</w> 1
appa</w> 1
constant</w> 1
")</w> 1
vets</w> 1
job 1
ient</w> 1
ðŁĺŃðŁĺŃðŁĺŃ</w> 1
mj 1
french 1
diver 1
davies</w> 1
hhhh</w> 1
ebook</w> 1
à¹ī</w> 1
mariti 1
breeze</w> 1
suspended</w> 1
mato 1
viet</w> 1
rahu 1
sei 1
bolt</w> 1
enary</w> 1
leis 1
karl</w> 1
framed</w> 1
explaining</w> 1
abc 1
dealing</w> 1
nato</w> 1
jake 1
expand</w> 1
leonard</w> 1
established</w> 1
dub</w> 1
armen 1
elled</w> 1
vocal</w> 1
nicholas</w> 1
orient 1
kyo 1
illustrated</w> 1
ahh</w> 1
dancers</w> 1
million 1
geta 1
popp 1
asu 1
murdered</w> 1
gible</w> 1
stoked</w> 1
griffin</w> 1
maximum</w> 1
adrian</w> 1
encounter</w> 1
thero 1
davidson</w> 1
ðŁį»</w> 1
holiday 1
evo</w> 1
assets</w> 1
carson</w> 1
memorable</w> 1
âļ½</w> 1
obam 1
representative</w> 1
cbd</w> 1
tricks</w> 1
vogue</w> 1
voice 1
mmmm</w> 1
sebastian</w> 1
clif 1
athy</w> 1
paralle 1
ðŁ¤· 1
pak 1
evacu 1
eats</w> 1
Ø§Ø 1
touched</w> 1
organised</w> 1
spirits</w> 1
canad 1
guided</w> 1
framework</w> 1
ðŁĮŁ 1
ped 1
natural 1
agar 1
replaced</w> 1
anchor</w> 1
tit</w> 1
shah 1
organis 1
superior</w> 1
rn 1
chro 1
erica</w> 1
still 1
coron 1
chuck 1
locks</w> 1
organ</w> 1
rosen 1
scam</w> 1
bened 1
/#</w> 1
keen</w> 1
trevor</w> 1
vampire</w> 1
sorted</w> 1
!'</w> 1
afford</w> 1
intro</w> 1
grace 1
ðŁĺľ 1
saur</w> 1
kickstarter</w> 1
influen 1
vu</w> 1
yup</w> 1
poc 1
ðŁİ¥</w> 1
aar</w> 1
sang 1
trek 1
etsy 1
tbh</w> 1
scream</w> 1
chevrolet</w> 1
pixel</w> 1
shepherd</w> 1
anor 1
gabriel</w> 1
twood</w> 1
sdcc</w> 1
meters</w> 1
developers</w> 1
closure</w> 1
vw</w> 1
twitch 1
ìĹ 1
seoul</w> 1
price 1
hog</w> 1
nish</w> 1
hillary 1
scratch</w> 1
incen 1
wagon</w> 1
disability</w> 1
panther</w> 1
chats</w> 1
gd 1
witz</w> 1
sussex</w> 1
late 1
denmark</w> 1
gerald</w> 1
cancelled</w> 1
nette</w> 1
ix 1
naval</w> 1
baptist</w> 1
tet</w> 1
yad 1
math 1
hoy</w> 1
randy</w> 1
point 1
intellec 1
fruits</w> 1
wool</w> 1
guin 1
pron 1
theft</w> 1
condem 1
marry</w> 1
nola</w> 1
architects</w> 1
cincin 1
rockets</w> 1
gentleman</w> 1
explan 1
tate</w> 1
doe</w> 1
raises</w> 1
wildlife 1
wl 1
insider</w> 1
blanc</w> 1
wp</w> 1
forsale</w> 1
nyc 1
powell</w> 1
unbelievable</w> 1
pens 1
goodies</w> 1
mustang</w> 1
pens</w> 1
stays</w> 1
squash</w> 1
xoxo</w> 1
nearby</w> 1
everton</w> 1
coco</w> 1
leagu 1
khan 1
stud</w> 1
southwest</w> 1
construc 1
sworth</w> 1
croatia</w> 1
lea</w> 1
sums</w> 1
aims</w> 1
ean</w> 1
vaness 1
itious</w> 1
pathy</w> 1
arcade</w> 1
bend</w> 1
suggests</w> 1
sacram 1
royals</w> 1
rier</w> 1
emir 1
incl</w> 1
ank 1
clark 1
right 1
vacc 1
à¤¾</w> 1
tane 1
lib</w> 1
usc 1
sales 1
huh</w> 1
sally</w> 1
vera</w> 1
pga</w> 1
grows</w> 1
drum 1
tree 1
ethics</w> 1
suggest</w> 1
isab 1
sealed</w> 1
previously</w> 1
animated</w> 1
abdu 1
rises</w> 1
glob 1
predat 1
scarf</w> 1
delic 1
omar</w> 1
lli</w> 1
sxsw</w> 1
python</w> 1
nebra 1
funk</w> 1
reflect</w> 1
pavilion</w> 1
tically</w> 1
chasing</w> 1
bakery</w> 1
invasion</w> 1
koh 1
believed</w> 1
cohen</w> 1
conqu 1
crafts</w> 1
nati</w> 1
clever</w> 1
governance</w> 1
samples</w> 1
fails</w> 1
âĶ 1
timo 1
ritu 1
striking</w> 1
inclusive</w> 1
shocking</w> 1
cant 1
requires</w> 1
drawings</w> 1
à¸Ń 1
purchased</w> 1
dum 1
zach 1
warner</w> 1
console</w> 1
mansion</w> 1
fountain</w> 1
circum 1
esh</w> 1
island 1
milk 1
profits</w> 1
halifax</w> 1
rival 1
âľĪï¸ı</w> 1
jenny</w> 1
sandra</w> 1
nye</w> 1
kelly 1
yal</w> 1
quad</w> 1
nos</w> 1
instein</w> 1
finalists</w> 1
midfielder</w> 1
cue</w> 1
exceptional</w> 1
aan</w> 1
sapp 1
gettin</w> 1
saa</w> 1
fati 1
slice</w> 1
volk 1
swal 1
lasting</w> 1
summary</w> 1
itas</w> 1
smo</w> 1
sz 1
âĺĨ</w> 1
ipl</w> 1
flames</w> 1
enews</w> 1
hav 1
hoodie</w> 1
pitcher</w> 1
windy</w> 1
revol 1
central 1
tonite</w> 1
ðŁİīðŁİī</w> 1
solved</w> 1
milwau 1
organizations</w> 1
weets</w> 1
refin 1
sth 1
ãĥ¼ 1
elin</w> 1
tona</w> 1
cinnamon</w> 1
ðŁİ¨</w> 1
ðŁİģ</w> 1
ronaldo</w> 1
peninsu 1
omega</w> 1
elds</w> 1
designing</w> 1
eigh 1
bluet 1
benz</w> 1
nug 1
asha</w> 1
robots</w> 1
sudan</w> 1
choosing</w> 1
endo 1
serge 1
closely</w> 1
handy</w> 1
finger 1
being 1
arte 1
survived</w> 1
flame</w> 1
milestone</w> 1
gut</w> 1
dwar 1
futures</w> 1
Ã©e</w> 1
elo</w> 1
fridge</w> 1
elic</w> 1
ouch</w> 1
ub</w> 1
pv</w> 1
titan 1
collar</w> 1
station 1
nevada</w> 1
aurora</w> 1
rd 1
duncan</w> 1
âģł</w> 1
brien</w> 1
marsh</w> 1
Ð¾ 1
total 1
chry 1
sers</w> 1
suffe 1
rachel 1
college 1
todays</w> 1
courts</w> 1
chit 1
reunited</w> 1
gymna 1
genesis</w> 1
beside</w> 1
representation</w> 1
chant</w> 1
collector</w> 1
rak 1
athens</w> 1
nigh 1
munich</w> 1
languages</w> 1
flu</w> 1
participation</w> 1
___</w> 1
cv 1
spectrum</w> 1
soda</w> 1
cover 1
referen 1
abbo 1
apa</w> 1
publication</w> 1
edm</w> 1
monica</w> 1
army 1
ðŁļĢ</w> 1
divor 1
dry 1
streams</w> 1
robotics</w> 1
cider</w> 1
bullying</w> 1
approval</w> 1
stoke</w> 1
platforms</w> 1
sierra</w> 1
extin 1
ib</w> 1
hayes</w> 1
succeed</w> 1
suffer</w> 1
atically</w> 1
dai 1
lynch</w> 1
hound</w> 1
delines</w> 1
acknow 1
dated</w> 1
exclusively</w> 1
heres</w> 1
facilit 1
damaged</w> 1
charter</w> 1
lakers</w> 1
falcon</w> 1
unveiled</w> 1
welove 1
ease</w> 1
patience</w> 1
lone</w> 1
gentle</w> 1
genetic</w> 1
producing</w> 1
gour 1
shannon</w> 1
bilities</w> 1
zimbabwe</w> 1
pint</w> 1
daughters</w> 1
literary</w> 1
belle 1
clam 1
surrounded</w> 1
kany 1
neil 1
pirate</w> 1
ranger</w> 1
hbd</w> 1
natalie</w> 1
belong</w> 1
olympi 1
embassy</w> 1
scol 1
ener</w> 1
akin</w> 1
loren 1
bh</w> 1
:/</w> 1
diva</w> 1
denim</w> 1
hipp 1
ðŁĩµðŁĩ 1
arnold</w> 1
?'</w> 1
weren</w> 1
empower 1
disabled</w> 1
manor</w> 1
raspberry</w> 1
baf 1
awful</w> 1
drummer</w> 1
kardashi 1
nash</w> 1
machinelearning</w> 1
chu</w> 1
rebels</w> 1
timing</w> 1
monroe</w> 1
tongue</w> 1
range 1
pupils</w> 1
ress</w> 1
amazon 1
bz</w> 1
harley</w> 1
palmer</w> 1
balloon</w> 1
sings</w> 1
icec 1
jb</w> 1
cers</w> 1
gps</w> 1
whist 1
rise 1
lt 1
oooo</w> 1
cattle</w> 1
shooter</w> 1
vodka</w> 1
ucl</w> 1
mtg</w> 1
lesli 1
jonas</w> 1
dispo 1
atric</w> 1
stein 1
vintage 1
firms</w> 1
floyd</w> 1
cowboy</w> 1
soooo</w> 1
isaac</w> 1
warcraft</w> 1
disneyland</w> 1
beautiful 1
beam</w> 1
franchise</w> 1
bun</w> 1
kag 1
anon</w> 1
turbo</w> 1
sweep</w> 1
madein 1
karachi</w> 1
detective</w> 1
pennsylvania</w> 1
controversi 1
vitamin</w> 1
aside</w> 1
chronic</w> 1
describes</w> 1
removal</w> 1
hah</w> 1
aper 1
tened</w> 1
uto</w> 1
badly</w> 1
mirac 1
fry</w> 1
yea</w> 1
injec 1
thermal</w> 1
compact</w> 1
thor</w> 1
teed</w> 1
urgent</w> 1
lite</w> 1
gilli 1
sophom 1
ico 1
chem</w> 1
pm 1
fork</w> 1
freak</w> 1
chak 1
recipient</w> 1
iy 1
nik</w> 1
modeling</w> 1
cans</w> 1
ðŁıĢ 1
delux 1
seam 1
survivors</w> 1
radical</w> 1
investigating</w> 1
reliable</w> 1
fm 1
turt 1
lighthouse</w> 1
tool 1
gown</w> 1
)) 1
bots</w> 1
autograph</w> 1
aid 1
buffe 1
hmm</w> 1
horrible</w> 1
ssional</w> 1
anni</w> 1
à¹Ģ 1
kits</w> 1
schi 1
eternal</w> 1
huss 1
sensitive</w> 1
ru</w> 1
tastes</w> 1
checks</w> 1
imo</w> 1
portion</w> 1
skate 1
eden</w> 1
halftime</w> 1
fried 1
rihanna</w> 1
tise</w> 1
flick 1
cain</w> 1
sgt</w> 1
âľĶ</w> 1
shau 1
stained</w> 1
raffle</w> 1
drove</w> 1
salman 1
principles</w> 1
sho</w> 1
aru 1
jess</w> 1
guine 1
garbage</w> 1
myan 1
jelly</w> 1
disru 1
zia</w> 1
qld</w> 1
entries</w> 1
lav 1
flew</w> 1
admit</w> 1
objects</w> 1
compare</w> 1
nytimes</w> 1
cannes</w> 1
pn</w> 1
suffol 1
roc</w> 1
dana</w> 1
egg 1
hist</w> 1
counsel 1
'!</w> 1
physi 1
imagination</w> 1
adjust 1
explosion</w> 1
plymouth</w> 1
horror 1
elliott</w> 1
bourne 1
dex</w> 1
breed</w> 1
audio 1
lobster</w> 1
disappointed</w> 1
nationwide</w> 1
((</w> 1
increases</w> 1
australi 1
cedar</w> 1
staring</w> 1
racial</w> 1
eis 1
gmt</w> 1
visions</w> 1
stayed</w> 1
discussions</w> 1
dean 1
curtis</w> 1
maiden</w> 1
stellar</w> 1
happiest</w> 1
hwy</w> 1
preseason</w> 1
carav 1
mondays</w> 1
hospitals</w> 1
glimpse</w> 1
scholars</w> 1
jai</w> 1
terrace</w> 1
anna 1
goose</w> 1
graded</w> 1
lotus</w> 1
hung</w> 1
grocery</w> 1
stamps</w> 1
emperor</w> 1
scoop</w> 1
inser 1
cas</w> 1
existence</w> 1
heal</w> 1
falcons</w> 1
marvel 1
reducing</w> 1
terrific</w> 1
magnetic</w> 1
performs</w> 1
barre 1
pus</w> 1
treating</w> 1
icon 1
wh</w> 1
declared</w> 1
trauma</w> 1
dod 1
comedian</w> 1
nikon</w> 1
bugs</w> 1
asm</w> 1
montgom 1
ibiza</w> 1
comprehensive</w> 1
has 1
santi 1
fellowship</w> 1
dash 1
psal 1
louisville</w> 1
spy 1
fault</w> 1
dthe 1
filed</w> 1
vista</w> 1
desc 1
fears</w> 1
youtu 1
sps</w> 1
esp</w> 1
rig</w> 1
crime 1
berger</w> 1
wonderland</w> 1
kent 1
informed</w> 1
stevens</w> 1
myth</w> 1
aston</w> 1
iri</w> 1
visitor</w> 1
atri 1
producers</w> 1
alla 1
personally</w> 1
separate</w> 1
agencies</w> 1
afri 1
ilan 1
spoke 1
nina</w> 1
squad 1
dives</w> 1
depend 1
liv 1
fierce</w> 1
entertaining</w> 1
chain 1
scat 1
borders</w> 1
palette</w> 1
spro 1
osis</w> 1
derby 1
tobacco</w> 1
zio</w> 1
willie</w> 1
juvent 1
zoom</w> 1
holy 1
entirely</w> 1
afe</w> 1
martinez</w> 1
beds</w> 1
pea</w> 1
bulldogs</w> 1
ðŁĩªðŁĩ 1
ibm</w> 1
neon</w> 1
ethiopia</w> 1
teammates</w> 1
planting</w> 1
twer 1
anytime</w> 1
forbes</w> 1
Ã³n</w> 1
runway</w> 1
nervous</w> 1
roger 1
pile</w> 1
chanc 1
apocaly 1
uw 1
oi</w> 1
drought</w> 1
territory</w> 1
brick 1
creatures</w> 1
goin</w> 1
waff 1
gren 1
southeast</w> 1
jean 1
ambul 1
edited</w> 1
strap</w> 1
cv</w> 1
aaron 1
ãĥ»ãĥ» 1
tsu 1
description</w> 1
kindly</w> 1
clutch</w> 1
immer 1
enor 1
womensday</w> 1
orange 1
rag 1
obvious</w> 1
hyder 1
channels</w> 1
mango</w> 1
meyer</w> 1
raining</w> 1
getty</w> 1
pilgri 1
coordinator</w> 1
upload</w> 1
nintendo 1
donuts</w> 1
sanchez</w> 1
apparel</w> 1
jr 1
zzi</w> 1
,@</w> 1
jefferson</w> 1
accessible</w> 1
greatly</w> 1
eid</w> 1
initial</w> 1
buddha</w> 1
paris 1
mascot</w> 1
â¬ĩï¸ı</w> 1
schwar 1
siri 1
spinning</w> 1
mortgage</w> 1
echo</w> 1
endange 1
gedly</w> 1
chloe</w> 1
enhance</w> 1
karnat 1
kry 1
explores</w> 1
ðŁĴģ 1
affair</w> 1
icals</w> 1
alla</w> 1
dart 1
dolphins</w> 1
differences</w> 1
squirrel</w> 1
augh</w> 1
drones</w> 1
ellen 1
restore</w> 1
paw 1
unfor 1
pike</w> 1
hilton</w> 1
collab</w> 1
consumers</w> 1
coinci 1
outcomes</w> 1
ppp</w> 1
aq 1
coupon</w> 1
liest</w> 1
sims</w> 1
kho 1
aves</w> 1
spoon</w> 1
pudding</w> 1
corbyn</w> 1
haters</w> 1
exams</w> 1
slave</w> 1
.!</w> 1
psa</w> 1
apples</w> 1
tamil</w> 1
sed 1
coke</w> 1
zzo</w> 1
losange 1
carbon 1
clair</w> 1
...)</w> 1
khu 1
craig 1
exploration</w> 1
sanctuary</w> 1
sue 1
alway 1
dementia</w> 1
wonders</w> 1
superhero</w> 1
pakistani</w> 1
browns</w> 1
bluetooth</w> 1
locker</w> 1
marc 1
eventu 1
deluxe</w> 1
rodriguez</w> 1
âĿ¤âĿ¤</w> 1
robb 1
ðŁĴ¦</w> 1
linux</w> 1
tens</w> 1
intelligent</w> 1
seed 1
voter</w> 1
sler</w> 1
peaks</w> 1
intern</w> 1
teenage</w> 1
peninsula</w> 1
handling</w> 1
tie 1
cousins</w> 1
wendy</w> 1
mee</w> 1
à¹Ģà¸ 1
dino</w> 1
ðŁĴ°</w> 1
ðŁĺĥ 1
zee</w> 1
sbury</w> 1
tragedy</w> 1
bk</w> 1
bore 1
zin 1
warns</w> 1
idiot</w> 1
touching</w> 1
continental</w> 1
tacos</w> 1
safari</w> 1
washed</w> 1
podium</w> 1
morrison</w> 1
forests</w> 1
cbc 1
alon 1
particular</w> 1
beads</w> 1
invented</w> 1
loch</w> 1
lighter</w> 1
wherever</w> 1
ide</w> 1
documents</w> 1
awe</w> 1
kr</w> 1
nowhere</w> 1
miner 1
stit 1
rox 1
contribute</w> 1
hardy</w> 1
clan</w> 1
object</w> 1
cait 1
ðŁĴķðŁĴķ</w> 1
happier</w> 1
vegetables</w> 1
tart</w> 1
gag 1
nominee</w> 1
heavily</w> 1
panic</w> 1
jd</w> 1
theresa</w> 1
atm</w> 1
uph 1
sfc</w> 1
suri 1
drink 1
nal 1
revel 1
kl</w> 1
avocado</w> 1
nomination</w> 1
madonna</w> 1
sharon</w> 1
malcolm</w> 1
controlled</w> 1
shers</w> 1
revival</w> 1
legislation</w> 1
shoots</w> 1
nin</w> 1
commentary</w> 1
pros</w> 1
humanrights</w> 1
stranger</w> 1
mitch</w> 1
pipeline</w> 1
legally</w> 1
thu</w> 1
gilbert</w> 1
toll</w> 1
granted</w> 1
ghs</w> 1
iranian</w> 1
refreshing</w> 1
duk</w> 1
abi</w> 1
prime 1
joseph 1
mosa 1
statistics</w> 1
productions</w> 1
merry 1
patel</w> 1
sax 1
humanitarian</w> 1
structures</w> 1
emissions</w> 1
towns</w> 1
freel 1
stering</w> 1
ratings</w> 1
allegedly</w> 1
cabin</w> 1
stl 1
wade</w> 1
flyers</w> 1
trim</w> 1
promising</w> 1
zu</w> 1
ballot</w> 1
comparison</w> 1
freeze</w> 1
outer</w> 1
greatness</w> 1
assign 1
snowy</w> 1
rale 1
tories</w> 1
mediter 1
knock 1
consultant</w> 1
cincinnati</w> 1
analyst</w> 1
scoo 1
jews</w> 1
approxim 1
pure 1
portraits</w> 1
cyrus</w> 1
ational 1
loans</w> 1
acquis 1
elu 1
acceptable</w> 1
union 1
watercolor</w> 1
rust</w> 1
battles</w> 1
perfu 1
seasonal</w> 1
serial</w> 1
mindset</w> 1
riot</w> 1
feld</w> 1
ennial</w> 1
closet</w> 1
priest</w> 1
tanks</w> 1
intl</w> 1
screw</w> 1
bum</w> 1
abdul 1
oux</w> 1
explained</w> 1
rica</w> 1
imaging</w> 1
lawyers</w> 1
buried</w> 1
ãĥ»ãĥ»ãĥ»</w> 1
earl</w> 1
âĢķ</w> 1
lton</w> 1
restored</w> 1
stripes</w> 1
foss 1
demands</w> 1
stealing</w> 1
alexis</w> 1
mund</w> 1
aker 1
urus</w> 1
wardro 1
hugs</w> 1
genre</w> 1
ego</w> 1
ÙĦ 1
participated</w> 1
babes</w> 1
banquet</w> 1
tious</w> 1
hemi 1
dsb</w> 1
lost 1
milwaukee</w> 1
jenner</w> 1
gem 1
outra 1
loses</w> 1
idi</w> 1
reps</w> 1
ðŁİ§</w> 1
regulation</w> 1
flaw 1
fang 1
vibrant</w> 1
ramp</w> 1
rains</w> 1
wellbeing</w> 1
soviet</w> 1
viewers</w> 1
depo 1
libraries</w> 1
bigo 1
sery</w> 1
gill 1
destruction</w> 1
coz</w> 1
cx</w> 1
bridal</w> 1
alds</w> 1
planted</w> 1
amateur</w> 1
lud 1
cheering</w> 1
showcas 1
profile 1
iu 1
vertical</w> 1
packers</w> 1
wizard</w> 1
skip</w> 1
slight</w> 1
beau</w> 1
airways</w> 1
much 1
rera</w> 1
ðŁĮĬ</w> 1
absor 1
patio</w> 1
packages</w> 1
sells</w> 1
mentally</w> 1
ðŁĺ¢ 1
reynolds</w> 1
kare 1
tribun 1
walt</w> 1
knit</w> 1
taste 1
surrey</w> 1
bounce</w> 1
creature</w> 1
bare</w> 1
betting</w> 1
sure 1
miley</w> 1
laughs</w> 1
alore</w> 1
cyn 1
tl 1
artist 1
annah</w> 1
warmer</w> 1
dynamics</w> 1
lunchtime</w> 1
maritime</w> 1
vulnerable</w> 1
ðŁĴĥ</w> 1
wolver 1
durham</w> 1
constantly</w> 1
amin 1
sibl 1
:@</w> 1
bullet 1
kach 1
angelo</w> 1
wilder 1
doom</w> 1
desktop</w> 1
lawsuit</w> 1
kca</w> 1
henderson</w> 1
inviting</w> 1
betty</w> 1
tawards</w> 1
rafa 1
leaked</w> 1
andi</w> 1
gems</w> 1
afl</w> 1
velo 1
mediterran 1
probe</w> 1
totten 1
stephanie</w> 1
snation</w> 1
combe</w> 1
qs</w> 1
overcome</w> 1
assassin 1
rav 1
filip 1
winnipeg</w> 1
shil 1
determined</w> 1
kas</w> 1
outre 1
regret</w> 1
guides</w> 1
aaa 1
ðŁĺĪ 1
wives</w> 1
manife 1
erly</w> 1
smy 1
shima</w> 1
xing</w> 1
pixel 1
jacob 1
accommod 1
toy 1
ono</w> 1
poo</w> 1
tier 1
answe 1
ðŁĴģ</w> 1
rosa</w> 1
lease</w> 1
belongs</w> 1
thar 1
eventually</w> 1
neither</w> 1
goa</w> 1
skiing</w> 1
atra</w> 1
agh</w> 1
broadcasting</w> 1
fury</w> 1
pyram 1
dice</w> 1
volkswag 1
womens</w> 1
provider</w> 1
bombs</w> 1
missile</w> 1
whip</w> 1
dick 1
norwe 1
backup</w> 1
elder</w> 1
mature</w> 1
concerts</w> 1
gious</w> 1
squee 1
goodmorning</w> 1
braves</w> 1
^_ 1
aussie</w> 1
luna</w> 1
males</w> 1
heck</w> 1
fortn 1
romeo</w> 1
steelers</w> 1
pn 1
peer</w> 1
represents</w> 1
Â«</w> 1
katy</w> 1
miguel</w> 1
require</w> 1
chains</w> 1
lur 1
immediate</w> 1
timber 1
âĸ¶ï¸ı</w> 1
advocacy</w> 1
export</w> 1
anz 1
tiffany</w> 1
author 1
ðŁİĪ</w> 1
dudes</w> 1
chilly</w> 1
hid</w> 1
harm</w> 1
bug 1
monster 1
terrier</w> 1
tuc 1
storytelling</w> 1
tak</w> 1
inti 1
immigrants</w> 1
bis</w> 1
reaches</w> 1
compassion</w> 1
johnny 1
contributions</w> 1
ðŁĲ¶ 1
mechanical</w> 1
impression</w> 1
ranks</w> 1
kobe</w> 1
menting</w> 1
blossom</w> 1
pablo</w> 1
builder</w> 1
bombing</w> 1
twel 1
sullivan</w> 1
omo 1
pete 1
demi</w> 1
kudos</w> 1
wbb</w> 1
tgif</w> 1
massach 1
neighbor</w> 1
chefs</w> 1
engines</w> 1
pune</w> 1
gained</w> 1
phantom</w> 1
sdays</w> 1
extend</w> 1
gran</w> 1
centers</w> 1
jacqu 1
datasci 1
sleepy</w> 1
elvis</w> 1
answered</w> 1
slot</w> 1
cony</w> 1
flexible</w> 1
tially</w> 1
letics</w> 1
%,</w> 1
andrews</w> 1
sible</w> 1
momma</w> 1
vino</w> 1
dox</w> 1
invitational</w> 1
twilight</w> 1
jade</w> 1
illery</w> 1
johns</w> 1
fou 1
pv 1
---></w> 1
breakdown</w> 1
billion 1
printer</w> 1
mond 1
cbc</w> 1
maggie</w> 1
legion</w> 1
dub 1
kurt</w> 1
poor 1
parenting</w> 1
regions</w> 1
bikini</w> 1
beware</w> 1
sional</w> 1
auburn</w> 1
kidding</w> 1
amples</w> 1
span</w> 1
contempor 1
cic 1
habits</w> 1
ako</w> 1
prefe 1
buddies</w> 1
itz 1
emily 1
personnel</w> 1
mountain 1
versus</w> 1
ðŁĺ¬</w> 1
earning</w> 1
sink</w> 1
dari</w> 1
uu</w> 1
swin 1
ister</w> 1
brutal</w> 1
nac 1
kata</w> 1
cloth</w> 1
amand 1
ðŁĶĹ</w> 1
neo 1
alumin 1
weekends</w> 1
nebraska</w> 1
codes</w> 1
delayed</w> 1
bruno</w> 1
proven</w> 1
inc 1
ight 1
flan 1
oro</w> 1
lambert</w> 1
regulat 1
wf 1
massachuse 1
kardashian</w> 1
bernard</w> 1
fiesta</w> 1
volcano</w> 1
grandpa</w> 1
anca</w> 1
dre</w> 1
stitu 1
meaning 1
foam</w> 1
auck 1
ated 1
rl</w> 1
hotel 1
persons</w> 1
dynasty</w> 1
ellor</w> 1
mai</w> 1
amne 1
styling</w> 1
avier</w> 1
eg</w> 1
vegetarian</w> 1
,âĢ¦</w> 1
founders</w> 1
stain</w> 1
gd</w> 1
cycles</w> 1
skyline</w> 1
tractor</w> 1
exists</w> 1
tral</w> 1
kidney</w> 1
maril 1
instag 1
sette</w> 1
addict</w> 1
triangle</w> 1
flashback 1
controversial</w> 1
zon</w> 1
pins</w> 1
ias</w> 1
tray</w> 1
township</w> 1
delegates</w> 1
spam</w> 1
hms</w> 1
crane</w> 1
peoples</w> 1
olo 1
faction</w> 1
butes</w> 1
onica</w> 1
delegation</w> 1
newprofile 1
elier</w> 1
mca</w> 1
wand 1
gely</w> 1
losangeles</w> 1
berke 1
tive 1
disrup 1
zza</w> 1
casa</w> 1
jordan 1
fordshire</w> 1
gathered</w> 1
ichi</w> 1
attendees</w> 1
à¸Ńà¸ 1
peppers</w> 1
coin 1
bourbon</w> 1
ernity</w> 1
rotary</w> 1
behaviour</w> 1
jeremy 1
teamwork</w> 1
compliance</w> 1
tremend 1
ðŁĩ§ 1
buhari</w> 1
cambo 1
buyers</w> 1
hagen</w> 1
buds</w> 1
bayern</w> 1
monte</w> 1
smells</w> 1
anza</w> 1
athlon</w> 1
described</w> 1
workforce</w> 1
giving 1
api</w> 1
investments</w> 1
dail 1
selena</w> 1
database</w> 1
thum 1
mortal</w> 1
student 1
buyer</w> 1
dover</w> 1
garten</w> 1
attle 1
loyalty</w> 1
genoci 1
holocau 1
theaters</w> 1
ruling</w> 1
venus</w> 1
patent</w> 1
chun 1
abby</w> 1
awake</w> 1
massacre</w> 1
bangalore</w> 1
breaking 1
simmons</w> 1
justi 1
hale</w> 1
edchat</w> 1
ggles</w> 1
hawk 1
marking</w> 1
headlines</w> 1
strom</w> 1
cove</w> 1
breathtaking</w> 1
medals</w> 1
haircut</w> 1
christine</w> 1
telegraph</w> 1
gujarat</w> 1
jura 1
cane</w> 1
shore 1
propaganda</w> 1
mueller</w> 1
........</w> 1
savi 1
stomach</w> 1
throws</w> 1
tab</w> 1
warm 1
jong</w> 1
renowned</w> 1
hir</w> 1
rais 1
mushrooms</w> 1
guaranteed</w> 1
boa</w> 1
mj</w> 1
revolutionary</w> 1
certification</w> 1
bruins</w> 1
join 1
wes</w> 1
passport</w> 1
cg</w> 1
sexu 1
capable</w> 1
wv</w> 1
tones</w> 1
jackets</w> 1
accompan 1
spinach</w> 1
forever 1
blair</w> 1
watts</w> 1
gl</w> 1
couples</w> 1
prairie</w> 1
newprofilepic</w> 1
logistics</w> 1
massachusetts</w> 1
jaguar</w> 1
oid</w> 1
weal 1
underwater</w> 1
moz 1
yi</w> 1
maths</w> 1
myanmar</w> 1
preps</w> 1
suffered</w> 1
trace</w> 1
wali</w> 1
ahhh</w> 1
borg</w> 1
stitch</w> 1
culin 1
realise</w> 1
infection</w> 1
discrimination</w> 1
shame 1
ankle</w> 1
humid 1
yt</w> 1
bracket</w> 1
truck 1
triu 1
easter 1
community 1
postcard</w> 1
involving</w> 1
tyler 1
caramel</w> 1
overview</w> 1
examples</w> 1
integrity</w> 1
basement</w> 1
instruments</w> 1
anium</w> 1
atus</w> 1
gher</w> 1
laundry</w> 1
achieve 1
geneva</w> 1
pricing</w> 1
hyderabad</w> 1
belief</w> 1
meta 1
jaw 1
accounting</w> 1
leader 1
cristiano</w> 1
couture</w> 1
cyp 1
vised</w> 1
,,,</w> 1
knu 1
hick 1
breaker</w> 1
bram 1
rab 1
moor 1
hamas</w> 1
graduating</w> 1
puppies</w> 1
akh 1
tah 1
aches</w> 1
rie 1
opini 1
gta 1
reign</w> 1
tragic</w> 1
rever 1
pill 1
pineapple</w> 1
touches</w> 1
dare 1
leys</w> 1
ilo</w> 1
interiors</w> 1
scouts</w> 1
bart 1
enzie</w> 1
dono 1
brock 1
christians</w> 1
ensemble</w> 1
Â·</w> 1
cinemas</w> 1
newport</w> 1
airline</w> 1
winston</w> 1
leigh 1
contents</w> 1
prescri 1
urge</w> 1
trout</w> 1
fically</w> 1
ilia</w> 1
subsi 1
arer</w> 1
âļ¾ï¸ı</w> 1
wounded</w> 1
ðŁĻĤ</w> 1
pepper 1
ðŁĴŀ 1
fitted</w> 1
aff</w> 1
resur 1
thursdaythoughts</w> 1
zero 1
archaeology</w> 1
div</w> 1
jee</w> 1
ion 1
awaiting</w> 1
cozy</w> 1
beauties</w> 1
bald</w> 1
data 1
grizz 1
stalk</w> 1
kinds</w> 1
cleared</w> 1
jessic 1
regular 1
aliens</w> 1
place 1
bos 1
bizar 1
thisis 1
ðŁĴĢ 1
tottenham</w> 1
mafia</w> 1
slam 1
ariana</w> 1
carroll</w> 1
backpack</w> 1
carey</w> 1
univ</w> 1
rg</w> 1
pep</w> 1
digit 1
tattoos</w> 1
agon</w> 1
volunteering</w> 1
differen 1
consumption</w> 1
kathr 1
headphones</w> 1
tshirt</w> 1
ob</w> 1
element</w> 1
retail 1
shru 1
algori 1
container</w> 1
conscious</w> 1
fil</w> 1
coming 1
rash 1
urope</w> 1
define</w> 1
gior 1
feminist</w> 1
flowing</w> 1
routes</w> 1
glaci 1
fert 1
somerset</w> 1
antes</w> 1
tweeps</w> 1
$$</w> 1
hour 1
endangered</w> 1
yearsof 1
roh 1
popped</w> 1
backing</w> 1
basil</w> 1
brake</w> 1
monaco</w> 1
lgbtq</w> 1
prague</w> 1
utility</w> 1
cassi 1
gateway</w> 1
haunted</w> 1
schul 1
ðŁİµ</w> 1
should 1
walkingdead</w> 1
completing</w> 1
danny 1
montgomery</w> 1
penguin</w> 1
ssi</w> 1
merchandi 1
ðŁĳĳ 1
church 1
hates</w> 1
captain 1
breathing</w> 1
cet</w> 1
fairly</w> 1
approaches</w> 1
companion</w> 1
surprising</w> 1
kanye</w> 1
pey 1
hindi</w> 1
targeted</w> 1
lords</w> 1
deut 1
digging</w> 1
german 1
rut 1
energy 1
closest</w> 1
yun 1
apologi 1
à¸±</w> 1
sack</w> 1
rup</w> 1
ddy 1
portal</w> 1
dough</w> 1
bats</w> 1
ðŁĵ°</w> 1
atur 1
grapher</w> 1
pires</w> 1
motors</w> 1
ðŁĮ¹ 1
jc 1
dang</w> 1
tuk</w> 1
clue</w> 1
usc</w> 1
page 1
dless</w> 1
brows</w> 1
jus</w> 1
ading</w> 1
remarks</w> 1
oom</w> 1
cardio 1
stefan 1
armstrong</w> 1
âĢ¢âĢ¢ 1
niest</w> 1
belgian</w> 1
biop 1
soy</w> 1
lof 1
íĥ 1
qt</w> 1
flashbackfriday</w> 1
cee</w> 1
ģà¸ 1
wreck</w> 1
marines</w> 1
amendment</w> 1
wardrobe</w> 1
voy</w> 1
burned</w> 1
guitars</w> 1
rainf 1
lifel 1
ssil</w> 1
ounce</w> 1
external</w> 1
ckey 1
mesh</w> 1
sheikh</w> 1
invitation</w> 1
suggesti 1
popcorn</w> 1
phenomenal</w> 1
anonymous</w> 1
tuna</w> 1
chicago 1
oval</w> 1
dely</w> 1
locals</w> 1
(&</w> 1
prof 1
novel 1
finder</w> 1
sparks</w> 1
laven 1
infu 1
nicks</w> 1
quant 1
rae</w> 1
exec</w> 1
distingui 1
stances</w> 1
mutual</w> 1
shal 1
unveils</w> 1
edmonton</w> 1
zania</w> 1
adio</w> 1
viewer</w> 1
bradford</w> 1
auditorium</w> 1
quis 1
react</w> 1
http</w> 1
lero 1
cheeky</w> 1
impacts</w> 1
tak 1
edt</w> 1
desperate</w> 1
tay</w> 1
ìĦ 1
settle</w> 1
bargain</w> 1
resume</w> 1
unite 1
thrown</w> 1
kest</w> 1
seys</w> 1
marching</w> 1
amit 1
decline</w> 1
schar 1
metr 1
stanford</w> 1
linke 1
berra</w> 1
dolls</w> 1
rugby 1
jami 1
bor</w> 1
roadtrip</w> 1
dinosaur</w> 1
mik 1
sunder 1
rem 1
bk 1
overseas</w> 1
naughty</w> 1
implementation</w> 1
iamsrk</w> 1
luncheon</w> 1
firing</w> 1
miami 1
perez</w> 1
thee</w> 1
zon 1
gifted</w> 1
conversion</w> 1
ceramic</w> 1
¡ï¸ı 1
pedro</w> 1
ìĨ 1
vick 1
!@</w> 1
heed</w> 1
sid</w> 1
bw</w> 1
document</w> 1
plun 1
grants</w> 1
fantasy 1
predictions</w> 1
valid</w> 1
carved</w> 1
graduated</w> 1
ðŁĳįðŁı»</w> 1
nationally</w> 1
chy 1
afl 1
resso</w> 1
blank</w> 1
rivals</w> 1
jig 1
eties</w> 1
omics</w> 1
unemp 1
bound 1
sko 1
inspection</w> 1
paral 1
highs</w> 1
crisp</w> 1
bans</w> 1
oba</w> 1
[@</w> 1
cospla 1
costumes</w> 1
recall</w> 1
mouth 1
nigel</w> 1
bts 1
tera</w> 1
kov</w> 1
docs</w> 1
westminster</w> 1
dict</w> 1
gravity</w> 1
kari</w> 1
rogue</w> 1
tted</w> 1
wark</w> 1
idaho</w> 1
wend 1
awi</w> 1
queensland</w> 1
processes</w> 1
cliffe</w> 1
mick 1
compens 1
opol 1
they 1
clari 1
wikipedia</w> 1
salmankhan</w> 1
hazard</w> 1
preston</w> 1
sweetest</w> 1
pdf</w> 1
chees 1
trilo 1
southafrica</w> 1
burnt</w> 1
($</w> 1
contain</w> 1
tp</w> 1
submitted</w> 1
soundcloud</w> 1
atu 1
rez</w> 1
wordpress</w> 1
corrupt</w> 1
nf 1
maker 1
íķ 1
paras 1
advent</w> 1
rial</w> 1
cafe 1
fossil</w> 1
!!!!!!!</w> 1
cows</w> 1
cj</w> 1
spur 1
institutions</w> 1
landmark</w> 1
entit 1
reut 1
his 1
alzheim 1
wemb 1
reggae</w> 1
mosqu 1
stat</w> 1
identified</w> 1
dealer</w> 1
ream</w> 1
reland</w> 1
tension</w> 1
ðŁĩ© 1
wrapping</w> 1
deeper</w> 1
frat 1
reddit</w> 1
aris</w> 1
morocco</w> 1
.."</w> 1
blow 1
mapping</w> 1
priorities</w> 1
inga</w> 1
swap</w> 1
rewards</w> 1
conspiracy</w> 1
creative 1
cj 1
congressional</w> 1
vault</w> 1
plex</w> 1
sophomore</w> 1
shadow 1
eless 1
ðŁĺħ 1
darts</w> 1
aldub</w> 1
annoying</w> 1
props</w> 1
nas</w> 1
aluminum</w> 1
hbo</w> 1
offense</w> 1
jill</w> 1
onions</w> 1
laur 1
tae 1
hardest</w> 1
shro 1
gaining</w> 1
measure 1
edtech</w> 1
cyprus</w> 1
tara</w> 1
angeli 1
carlo</w> 1
goon</w> 1
alli</w> 1
implic 1
jupit 1
resilience</w> 1
hail 1
balanced</w> 1
)...</w> 1
joyce</w> 1
gra</w> 1
theli 1
defined</w> 1
shipped</w> 1
mainly</w> 1
mina</w> 1
lm</w> 1
sacri 1
ober 1
pim 1
claiming</w> 1
enters</w> 1
corey</w> 1
bok</w> 1
cried</w> 1
cooling</w> 1
danielle</w> 1
pharmacy</w> 1
thorough 1
cake 1
klo 1
outreach</w> 1
zens</w> 1
digitalmarketing</w> 1
valent</w> 1
snp</w> 1
herb</w> 1
mrw</w> 1
cafÃ©</w> 1
captures</w> 1
notre</w> 1
triumph</w> 1
pancakes</w> 1
cumber 1
spike</w> 1
dation</w> 1
bigg 1
sper</w> 1
critical 1
amal 1
tooth 1
founding</w> 1
astro</w> 1
'#</w> 1
quantum</w> 1
thames</w> 1
unc</w> 1
pride 1
airbus</w> 1
knocked</w> 1
undefeated</w> 1
mediterranean</w> 1
calcu 1
clown</w> 1
sensor</w> 1
hammer 1
forgive</w> 1
cushi 1
berry 1
majestic</w> 1
elect</w> 1
politan</w> 1
gta</w> 1
kari 1
burke</w> 1
seahawks</w> 1
volkswagen</w> 1
rei 1
landscapes</w> 1
casu 1
grandfather</w> 1
listened</w> 1
// 1
startrek</w> 1
rainfall</w> 1
furry</w> 1
vier 1
stark</w> 1
rifle</w> 1
ffa</w> 1
leges</w> 1
hillaryclinton</w> 1
minus</w> 1
correctly</w> 1
architectural</w> 1
prece 1
upside</w> 1
boxer</w> 1
ðŁĻĮðŁı¼</w> 1
isai 1
det</w> 1
provo 1
tissue</w> 1
spooky</w> 1
veled</w> 1
recon 1
prospects</w> 1
quebec</w> 1
âļ« 1
igno 1
anatomy</w> 1
shapes</w> 1
wp 1
pinterest</w> 1
hore</w> 1
anes</w> 1
pickup</w> 1
tip 1
pradesh</w> 1
hugh</w> 1
coe</w> 1
pok 1
grammy</w> 1
wellington</w> 1
stigate</w> 1
righ 1
leap</w> 1
kingston</w> 1
scenic</w> 1
gosh</w> 1
vani 1
aug 1
sary</w> 1
zier</w> 1
bureau</w> 1
linson</w> 1
conte 1
fragr 1
allan</w> 1
gaw 1
lana</w> 1
collision</w> 1
surveill 1
renais 1
arrange 1
sali 1
doin</w> 1
brance</w> 1
brendan</w> 1
ourse</w> 1
incoming</w> 1
suspension</w> 1
à´ 1
lla</w> 1
educators</w> 1
intri 1
dae</w> 1
biography</w> 1
bulgar 1
villain</w> 1
gothic</w> 1
rwanda</w> 1
ew</w> 1
mayor 1
meetup</w> 1
democrat</w> 1
morgan 1
sudden</w> 1
tesco</w> 1
carrot</w> 1
bomber</w> 1
mckin 1
rene 1
funday</w> 1
agricultural</w> 1
hahah</w> 1
showtime</w> 1
forming</w> 1
cola</w> 1
scorpi 1
quote 1
poppy</w> 1
slife</w> 1
daz 1
tub</w> 1
nen</w> 1
mot</w> 1
ðŁĺ» 1
sore</w> 1
elderly</w> 1
ove</w> 1
skinny</w> 1
umi</w> 1
anco</w> 1
manship</w> 1
were 1
gv 1
kah</w> 1
folding</w> 1
neat</w> 1
samantha</w> 1
danish</w> 1
ukrain 1
humidity</w> 1
nutri 1
jakarta</w> 1
candles</w> 1
oooooooo 1
atile</w> 1
strength 1
ibra 1
bapti 1
charleston</w> 1
frames</w> 1
girls 1
clearing</w> 1
gluten 1
##</w> 1
supernatural</w> 1
jubi 1
phone 1
hein 1
drun 1
leak</w> 1
investor</w> 1
yer 1
domain</w> 1
ballroom</w> 1
mish 1
appli 1
offshore</w> 1
blaze</w> 1
doro 1
âĺķï¸ı</w> 1
winery</w> 1
sharif</w> 1
adore</w> 1
nir 1
safer</w> 1
sigh</w> 1
ascri 1
strongly</w> 1
tracy</w> 1
cker 1
oll</w> 1
faithful</w> 1
eyed</w> 1
delightful</w> 1
vism</w> 1
karnataka</w> 1
titan</w> 1
whar 1
jerseys</w> 1
refur 1
heaven 1
grip</w> 1
panama</w> 1
preli 1
gluten</w> 1
odd 1
content 1
ponti 1
tioning</w> 1
ecommerce</w> 1
federation</w> 1
flawless</w> 1
gear 1
tires</w> 1
byr 1
police 1
cuban</w> 1
tributes</w> 1
ticul 1
churches</w> 1
nursery</w> 1
diaries</w> 1
museums</w> 1
snapped</w> 1
ivan 1
wight</w> 1
tourists</w> 1
ramadan</w> 1
trent</w> 1
prophet</w> 1
wondered</w> 1
focusing</w> 1
hid 1
icons</w> 1
iq 1
ambulance</w> 1
pist 1
funniest</w> 1
timeless</w> 1
srilan 1
buys</w> 1
kids 1
colourful</w> 1
ashi 1
chir 1
mum 1
ðŁĵļ</w> 1
letter 1
xen 1
reuters</w> 1
preserve</w> 1
inting</w> 1
step 1
fuji 1
univer 1
iu</w> 1
showdown</w> 1
poems</w> 1
surveillance</w> 1
suspected</w> 1
tae</w> 1
solving</w> 1
tomb</w> 1
mothersday</w> 1
carpen 1
recruit</w> 1
pilots</w> 1
broc 1
mixing</w> 1
fridays</w> 1
tyr 1
representatives</w> 1
trapped</w> 1
abdul</w> 1
freestyle</w> 1
cluster</w> 1
âļłï¸ı</w> 1
kd</w> 1
skill 1
pitt</w> 1
exo 1
commerci 1
museum 1
locally</w> 1
gina</w> 1
nobel</w> 1
immune</w> 1
frac 1
capsu 1
mained 1
attempts</w> 1
bulldog</w> 1
bespoke</w> 1
singers</w> 1
spelling</w> 1
segment</w> 1
natures</w> 1
tick</w> 1
lipstick</w> 1
cleaner</w> 1
gettable</w> 1
precision</w> 1
âĢ¼ï¸ı 1
thood</w> 1
reef</w> 1
nope</w> 1
billy 1
digi 1
musi 1
rival</w> 1
figured</w> 1
tality</w> 1
sunny 1
berk 1
awww</w> 1
awaits</w> 1
unreal</w> 1
copen 1
asylum</w> 1
exotic</w> 1
buen 1
mock 1
enable</w> 1
archy</w> 1
fra</w> 1
plastic 1
almond</w> 1
ampli 1
displays</w> 1
abbott</w> 1
sme</w> 1
xp</w> 1
ðŁĻĥ</w> 1
graphic 1
ived</w> 1
mara</w> 1
caution</w> 1
leaks</w> 1
enberg</w> 1
ulu</w> 1
unicorn</w> 1
cannon</w> 1
apprentic 1
ðŁĺĺðŁĺĺ 1
bball</w> 1
willow</w> 1
atics</w> 1
amas</w> 1
manufacturer</w> 1
campaigns</w> 1
porters</w> 1
floors</w> 1
lsu</w> 1
type 1
kej 1
honorary</w> 1
itim 1
tole 1
minecraft</w> 1
dx</w> 1
mash</w> 1
rio 1
consequences</w> 1
ronald</w> 1
gossi 1
suffolk</w> 1
muse</w> 1
rbi</w> 1
livemusic</w> 1
ivan</w> 1
ðŁİ¤</w> 1
leu 1
patriot</w> 1
manit 1
lanca 1
homedecor</w> 1
dear 1
sigma</w> 1
tide 1
strings</w> 1
vita</w> 1
sequel</w> 1
tryna</w> 1
investigate</w> 1
boris</w> 1
vegan 1
barrier</w> 1
mindfulness</w> 1
webb</w> 1
hustle</w> 1
inda</w> 1
tanzania</w> 1
stray</w> 1
texas 1
cag 1
diagnosis</w> 1
woman 1
gw</w> 1
obsession</w> 1
lative</w> 1
nufc</w> 1
flynn</w> 1
momentum</w> 1
sofa</w> 1
wald</w> 1
vegetable</w> 1
tucker</w> 1
supper</w> 1
seab 1
arro 1
seag 1
venting</w> 1
councill 1
splat 1
calcul 1
..#</w> 1
comfy</w> 1
odisha</w> 1
stopp 1
warfare</w> 1
caes 1
à¨ 1
coy</w> 1
priceless</w> 1
insec 1
ðŁĺĽ</w> 1
controls</w> 1
empowerment</w> 1
datascience</w> 1
perpe 1
genic</w> 1
eres</w> 1
trudeau</w> 1
mano 1
slavery</w> 1
expanding</w> 1
mahe 1
failing</w> 1
saga</w> 1
photographs</w> 1
crest</w> 1
reon</w> 1
surfing</w> 1
hie</w> 1
ðŁįĢ</w> 1
jae</w> 1
fellows</w> 1
southampton</w> 1
solom 1
cester 1
tability</w> 1
horn 1
sect</w> 1
hee</w> 1
coleman</w> 1
atlas</w> 1
explorer</w> 1
consultation</w> 1
copyright</w> 1
organizing</w> 1
denied</w> 1
monkeys</w> 1
noodles</w> 1
bris</w> 1
flor 1
dough 1
bonds</w> 1
shocked</w> 1
ecosystem</w> 1
carefully</w> 1
wm</w> 1
apartments</w> 1
curve</w> 1
sandiego</w> 1
mustard</w> 1
commen 1
ceremon 1
ech 1
ruth 1
ðŁĻĮðŁı»</w> 1
hawai 1
filmed</w> 1
tear 1
asingly</w> 1
cair 1
watt</w> 1
instrument</w> 1
outta</w> 1
yeol</w> 1
riverside</w> 1
ë° 1
.:</w> 1
norwich</w> 1
alog</w> 1
migrants</w> 1
newman</w> 1
ride 1
sprink 1
targeting</w> 1
believe 1
torch</w> 1
reflects</w> 1
permission</w> 1
ffman</w> 1
enemies</w> 1
basics</w> 1
seized</w> 1
sundays</w> 1
lei 1
hassan</w> 1
endo</w> 1
hc 1
stad 1
lements</w> 1
kkkk 1
nano 1
shark 1
mana</w> 1
onic 1
treatments</w> 1
early 1
collaborative</w> 1
shuttle</w> 1
branches</w> 1
misses</w> 1
mainedcm</w> 1
apers</w> 1
kyle 1
carrie</w> 1
leisure</w> 1
shet 1
birding</w> 1
advances</w> 1
ðŁĵĿ</w> 1
popular 1
diane</w> 1
abe 1
rewar 1
neighbour 1
kpop</w> 1
remembrance</w> 1
playground</w> 1
rub 1
krishna</w> 1
ebola</w> 1
inquiry</w> 1
epa</w> 1
lumin 1
organisation</w> 1
abraham</w> 1
normally</w> 1
preten 1
janet</w> 1
wt 1
ðŁĴİ</w> 1
encouraging</w> 1
astic</w> 1
bump</w> 1
sydney 1
sz</w> 1
ssss</w> 1
garrett</w> 1
ðŁĵ»</w> 1
consulting</w> 1
romania</w> 1
spotting</w> 1
chancellor</w> 1
arma 1
prestigious</w> 1
ðĿĲ 1
tad 1
cryst 1
competit 1
ratio</w> 1
cataly 1
brow</w> 1
jur 1
viking</w> 1
commute</w> 1
yday</w> 1
layers</w> 1
dumb 1
escal 1
genocide</w> 1
fill 1
gupta</w> 1
stepping</w> 1
sei</w> 1
foto 1
wildcats</w> 1
coli</w> 1
project 1
earnings</w> 1
str</w> 1
geons</w> 1
completion</w> 1
bm</w> 1
decorated</w> 1
crawford</w> 1
afghan</w> 1
scare</w> 1
visibility</w> 1
hib 1
direction 1
stroll</w> 1
christina</w> 1
alternate</w> 1
clare</w> 1
stylist</w> 1
behold</w> 1
sance</w> 1
leopard</w> 1
acquired</w> 1
narrative</w> 1
ashi</w> 1
thea 1
???? 1
peas</w> 1
atch</w> 1
slides</w> 1
leen</w> 1
renewable</w> 1
english 1
quir 1
coaster</w> 1
rx</w> 1
fools</w> 1
matchday</w> 1
mism</w> 1
amazing 1
zig 1
keting</w> 1
wont</w> 1
towel</w> 1
diab 1
stake 1
nm 1
melt</w> 1
ethan</w> 1
grape</w> 1
politician</w> 1
smen</w> 1
íĺ 1
reo 1
weddings</w> 1
catcher</w> 1
oracle</w> 1
memo 1
ðŁĮ´</w> 1
eck</w> 1
robbie</w> 1
norwegian</w> 1
operator</w> 1
amor</w> 1
sewing</w> 1
jul</w> 1
xie</w> 1
uv</w> 1
fifty</w> 1
mega 1
tattoo 1
liberals</w> 1
upri 1
trafficking</w> 1
richardson</w> 1
suv</w> 1
kip</w> 1
messy</w> 1
tremendous</w> 1
glou 1
courtney</w> 1
lad 1
stereo 1
myers</w> 1
idio 1
^_^</w> 1
manning</w> 1
dye</w> 1
wd 1
throne</w> 1
junk</w> 1
asu</w> 1
provincial</w> 1
kook</w> 1
wrc</w> 1
fineart</w> 1
hampshire</w> 1
renaissance</w> 1
bred</w> 1
fallout</w> 1
sj</w> 1
snl</w> 1
alam</w> 1
torture</w> 1
fyi</w> 1
shines</w> 1
paw</w> 1
char</w> 1
henry 1
crow</w> 1
acious</w> 1
dian 1
paige</w> 1
bare 1
stockholm</w> 1
scenery</w> 1
ðŁĩ· 1
jeffrey</w> 1
push 1
decoration</w> 1
ned 1
cute 1
brigade</w> 1
lavender</w> 1
invites</w> 1
esports</w> 1
voir</w> 1
dried</w> 1
transpl 1
surgeon</w> 1
novels</w> 1
pulls</w> 1
sony 1
lunar</w> 1
mane</w> 1
ivy</w> 1
frustr 1
dorset</w> 1
sai 1
torres</w> 1
ssion 1
shutdown</w> 1
suggestions</w> 1
writing 1
eo 1
battlefield</w> 1
uga</w> 1
ðŁĲ¾ 1
vacu 1
splac 1
git 1
ug</w> 1
highland</w> 1
%)</w> 1
mermaid</w> 1
sacramento</w> 1
tails</w> 1
pw</w> 1
kah 1
tell 1
enhanced</w> 1
ìķ 1
auckland</w> 1
cruel 1
ðŁ¤©</w> 1
audre 1
sailor</w> 1
grammar</w> 1
glove</w> 1
deon</w> 1
inflam 1
freshly</w> 1
kell 1
zip</w> 1
christie</w> 1
mild</w> 1
dixon</w> 1
instructor</w> 1
gence</w> 1
ãħł 1
subjec 1
constitutional</w> 1
crowds</w> 1
invisible</w> 1
ruins</w> 1
dak</w> 1
sip</w> 1
plaque</w> 1
pouring</w> 1
complex 1
zine</w> 1
stead 1
flet 1
transmission</w> 1
loway</w> 1
arun 1
increasingly</w> 1
aud 1
transparen 1
crowned</w> 1
scoun 1
blizzard</w> 1
luxu 1
fiers</w> 1
achievements</w> 1
hunters</w> 1
rocked</w> 1
basin</w> 1
violet</w> 1
proves</w> 1
achieving</w> 1
prosper 1
sega</w> 1
float</w> 1
vian</w> 1
xiv</w> 1
polic 1
tura</w> 1
approximately</w> 1
wanderlust</w> 1
keepers</w> 1
getaway</w> 1
cod 1
polis</w> 1
bryan 1
colts</w> 1
talents</w> 1
yogur 1
glutenfree</w> 1
wrist</w> 1
gry 1
czech</w> 1
ðŁİĪ 1
eville</w> 1
ðŁıĪ 1
tox</w> 1
daniels</w> 1
amer</w> 1
bids</w> 1
weareone 1
metab 1
gt 1
boyz</w> 1
pdx</w> 1
possession</w> 1
pushed</w> 1
shrine</w> 1
realistic</w> 1
trigger</w> 1
navi 1
rumors</w> 1
naf 1
jenkins</w> 1
trun 1
communi 1
ÃĹ</w> 1
gamers</w> 1
armor</w> 1
mohammed</w> 1
balcony</w> 1
yah 1
strongest</w> 1
rhythm</w> 1
unforgettable</w> 1
kp 1
hobb 1
custody</w> 1
gregor</w> 1
rita</w> 1
aesthetic</w> 1
ilation</w> 1
sponsoring</w> 1
nay</w> 1
kidnapp 1
shs</w> 1
rajas 1
meg</w> 1
significantly</w> 1
buttons</w> 1
lac</w> 1
versions</w> 1
essentials</w> 1
opinions</w> 1
kro 1
dprinting</w> 1
widely</w> 1
dk</w> 1
uran</w> 1
yal 1
requested</w> 1
cn</w> 1
curric 1
plum</w> 1
grun 1
vm 1
devon 1
myo 1
relation</w> 1
juventus</w> 1
rouge</w> 1
minority</w> 1
mines</w> 1
jupiter</w> 1
nine 1
oxygen</w> 1
frankie</w> 1
unesco</w> 1
fabric 1
disgusting</w> 1
salman</w> 1
detection</w> 1
lanka</w> 1
dac 1
ðŁĩ«ðŁĩ·</w> 1
argument</w> 1
shelves</w> 1
celtics</w> 1
roberto</w> 1
pigs</w> 1
hedge 1
faul 1
powering</w> 1
butterflies</w> 1
fir</w> 1
remake</w> 1
atti</w> 1
como</w> 1
empha 1
kendall</w> 1
pokemon 1
seating</w> 1
dans</w> 1
baldwin</w> 1
ðŁĳ»</w> 1
leslie</w> 1
onedirection</w> 1
timber</w> 1
iman</w> 1
font</w> 1
eder</w> 1
dion</w> 1
steph</w> 1
format 1
gregory</w> 1
prop</w> 1
hex 1
ruin</w> 1
sory</w> 1
infer 1
naw 1
barak</w> 1
sdgs</w> 1
karao 1
lush</w> 1
vander 1
endent</w> 1
gis 1
afro 1
soccer 1
ayan</w> 1
tuni 1
lung</w> 1
dayof 1
alexa</w> 1
marath 1
addicted</w> 1
agile</w> 1
hygi 1
lightweight</w> 1
ì§ 1
mandela</w> 1
joey 1
ancy 1
hum</w> 1
bir</w> 1
memorial 1
jimin</w> 1
ginger 1
vak 1
javascri 1
crops</w> 1
origins</w> 1
dari 1
piper</w> 1
import</w> 1
aggressive</w> 1
prediction</w> 1
repairs</w> 1
cracker</w> 1
voyage</w> 1
nike 1
mummy</w> 1
linkedin</w> 1
countryside</w> 1
border 1
glass 1
pert</w> 1
sals</w> 1
shoe 1
autographed</w> 1
walnut</w> 1
collegi 1
salary</w> 1
pairing</w> 1
ðŁĮ¸ 1
cathol 1
sweethe 1
defeats</w> 1
strengthen</w> 1
rooftop</w> 1
improvements</w> 1
barriers</w> 1
uru 1
tally</w> 1
ruled</w> 1
ðŁĨļ</w> 1
naija</w> 1
emoji</w> 1
percent 1
gio 1
probs</w> 1
once 1
admits</w> 1
paths</w> 1
liar</w> 1
daytona</w> 1
peters</w> 1
cali</w> 1
calli 1
mug 1
osa 1
aph 1
aby 1
hyde</w> 1
ethnic</w> 1
plains</w> 1
olf</w> 1
hahahahaha</w> 1
holic</w> 1
?!?!</w> 1
subli 1
blacks</w> 1
mot 1
ghton</w> 1
lovin</w> 1
brent</w> 1
baru</w> 1
lati 1
dew</w> 1
ateau</w> 1
qa</w> 1
painful</w> 1
busters</w> 1
static</w> 1
ðŁĩ¨ðŁĩ¦</w> 1
notebook</w> 1
outfits</w> 1
sies</w> 1
rf</w> 1
floods</w> 1
ÑĢ 1
throat</w> 1
suici 1
rovers</w> 1
bengal</w> 1
prepares</w> 1
blog 1
miniature</w> 1
Ø¨ 1
amphi 1
comb</w> 1
rsp 1
intimate</w> 1
greene</w> 1
Ìĩ</w> 1
altar</w> 1
surgical</w> 1
vessel</w> 1
...?</w> 1
gavin</w> 1
gator</w> 1
threatened</w> 1
zar</w> 1
robbery</w> 1
dier</w> 1
promoted</w> 1
yg</w> 1
xs</w> 1
subs</w> 1
interviewing</w> 1
threatening</w> 1
dozen</w> 1
meado 1
waterfall</w> 1
nintendoswitch</w> 1
calum</w> 1
ministers</w> 1
drop 1
universities</w> 1
warned</w> 1
tactics</w> 1
ðŁĩ² 1
refuse</w> 1
adju 1
vast</w> 1
ðŁĺ´</w> 1
mcfc</w> 1
libya</w> 1
nofilter</w> 1
distributed</w> 1
reser 1
ronnie</w> 1
deco</w> 1
javascript</w> 1
monk</w> 1
interests</w> 1
flex 1
martha</w> 1
sties</w> 1
ood 1
ðŁ¤£ðŁ¤£ 1
eun 1
bali 1
gomez</w> 1
stimul 1
moderate</w> 1
dity</w> 1
iris</w> 1
straw</w> 1
consistent</w> 1
directions</w> 1
adopt 1
salsa</w> 1
croo 1
recovered</w> 1
blackfriday</w> 1
lancaster</w> 1
accept 1
weareoneexo</w> 1
builds</w> 1
freeman</w> 1
airplane</w> 1
dition 1
belong 1
jamie 1
pitching</w> 1
lif 1
omin 1
crispy</w> 1
prepping</w> 1
veg</w> 1
chang</w> 1
accomplished</w> 1
gracias</w> 1
dolphin</w> 1
elector 1
culinary</w> 1
superbowl</w> 1
wala</w> 1
pursuit</w> 1
blackberry</w> 1
bean 1
cardinal</w> 1
proved</w> 1
immigrant</w> 1
strictly</w> 1
holocaust</w> 1
passage</w> 1
haus</w> 1
coup</w> 1
purse</w> 1
harass 1
<<</w> 1
leed 1
adobe</w> 1
stad</w> 1
legislat 1
parked</w> 1
priyan 1
silva</w> 1
krist 1
sthe 1
funky</w> 1
iga</w> 1
settlement</w> 1
phs</w> 1
tmrw</w> 1
stressed</w> 1
hunt 1
hockey 1
treasures</w> 1
chambers</w> 1
olu 1
hut</w> 1
marley</w> 1
texture</w> 1
wilderness</w> 1
mming</w> 1
potentially</w> 1
omaha</w> 1
judy</w> 1
toes</w> 1
spoiler</w> 1
distinguished</w> 1
felix</w> 1
ahu</w> 1
recommendations</w> 1
zombies</w> 1
hitler</w> 1
triple 1
collapse</w> 1
motivated</w> 1
ultimat 1
ggling</w> 1
soy 1
cigar</w> 1
foren 1
vineyard</w> 1
glitter</w> 1
findings</w> 1
colonial</w> 1
hunter 1
erik</w> 1
dens</w> 1
beetle</w> 1
lotte 1
subtle</w> 1
smatter</w> 1
trusted</w> 1
experimental</w> 1
naments</w> 1
ðŁĺĨ 1
region 1
acquisition</w> 1
breeding</w> 1
quarterback</w> 1
amreading</w> 1
ootd</w> 1
rude</w> 1
initiatives</w> 1
stout</w> 1
hyung</w> 1
outcome</w> 1
alfred</w> 1
mics</w> 1
expertise</w> 1
bacteria</w> 1
penguins</w> 1
jumper</w> 1
valencia</w> 1
bark</w> 1
ingday</w> 1
sellers</w> 1
contracts</w> 1
houston 1
commissioned</w> 1
adaptation</w> 1
swansea</w> 1
santiago</w> 1
commonwealth</w> 1
judging</w> 1
submission</w> 1
scorer</w> 1
tommy 1
Ã±o</w> 1
exquis 1
filing</w> 1
explanation</w> 1
allison</w> 1
wembley</w> 1
ridge 1
chevy</w> 1
santos</w> 1
ownership</w> 1
cognitive</w> 1
favourites</w> 1
shed 1
philanthro 1
deleted</w> 1
godd 1
snor 1
guidelines</w> 1
ffing</w> 1
jeep 1
clips</w> 1
swamp</w> 1
anor</w> 1
guild</w> 1
bolton</w> 1
springfield</w> 1
municipal</w> 1
goalkeeper</w> 1
yeon</w> 1
ðŁĺįðŁĺįðŁĺįðŁĺį 1
ãħĭãħĭ 1
waterfront</w> 1
grave 1
contemporary 1
arity</w> 1
ÃŃa</w> 1
sleeps</w> 1
syrup</w> 1
alam 1
pire 1
coyo 1
motogp</w> 1
tyson</w> 1
kejri 1
circul 1
singly</w> 1
crunch</w> 1
complicated</w> 1
nostalgia</w> 1
kop 1
move 1
kale</w> 1
macro</w> 1
midwest</w> 1
hans</w> 1
tribal</w> 1
nude</w> 1
à¯į</w> 1
beyonce</w> 1
congratulate</w> 1
cater 1
league 1
ðŁĻĬ</w> 1
ladder</w> 1
crashed</w> 1
technic 1
karaoke</w> 1
harassment</w> 1
rots</w> 1
experiencing</w> 1
kristen</w> 1
ðŁĩ³ 1
ðŁ¤Ĺ 1
reflections</w> 1
guinness</w> 1
illustrator</w> 1
ðŁĻıðŁı»</w> 1
center 1
narrow</w> 1
commons</w> 1
regulations</w> 1
ÙĨ 1
harm 1
croft</w> 1
cussion</w> 1
hongkong</w> 1
stical</w> 1
internship</w> 1
zoe</w> 1
chop</w> 1
hoods</w> 1
estimated</w> 1
batteries</w> 1
berkeley</w> 1
smoothie</w> 1
shaun</w> 1
cros 1
~~</w> 1
campe 1
hump 1
bg 1
prototype</w> 1
click 1
shawn 1
reviewed</w> 1
templ 1
pf 1
jedi</w> 1
blogs</w> 1
raymond</w> 1
asth 1
bah</w> 1
avail</w> 1
scotch</w> 1
leafs</w> 1
nikki</w> 1
tok 1
hollow</w> 1
urges</w> 1
oft</w> 1
unlike</w> 1
latin 1
ue 1
catering</w> 1
mili 1
alternati 1
maver 1
Ð¸ 1
agle</w> 1
preorder</w> 1
lux</w> 1
cucu 1
ðŁĳıðŁĳı</w> 1
tart 1
âĿ¤âĿ¤âĿ¤</w> 1
arabic</w> 1
rapidly</w> 1
arrang 1
allen 1
traveltuesday</w> 1
paws</w> 1
flows</w> 1
stability</w> 1
fluid</w> 1
capp 1
canberra</w> 1
uuuu 1
spani 1
demonstration</w> 1
mla</w> 1
placement</w> 1
mw 1
presidents</w> 1
awesom 1
beverly</w> 1
anist</w> 1
neal</w> 1
fathersday</w> 1
referendum</w> 1
lahore</w> 1
oaks</w> 1
debbie</w> 1
halfway</w> 1
ghosts</w> 1
debor 1
matthews</w> 1
fiat</w> 1
tfw</w> 1
presen 1
robi</w> 1
ded 1
brock</w> 1
laughed</w> 1
amounts</w> 1
bamboo</w> 1
kindergarten</w> 1
eaten</w> 1
mtvhottest</w> 1
breakout</w> 1
usic</w> 1
fraser</w> 1
legislative</w> 1
pang 1
module</w> 1
sammy</w> 1
gover</w> 1
earns</w> 1
expedition</w> 1
garh</w> 1
concepts</w> 1
charlie 1
lava</w> 1
bachelor</w> 1
veggies</w> 1
determine</w> 1
ellie</w> 1
unlocked</w> 1
fruit 1
dalla 1
coupe</w> 1
washington 1
deposit</w> 1
ivory</w> 1
paula</w> 1
chicag 1
gucci</w> 1
ðŁİĥ</w> 1
cultiv 1
pierce</w> 1
lifted</w> 1
stumb 1
recover</w> 1
muscles</w> 1
conducting</w> 1
cbs 1
mclaren</w> 1
sophia</w> 1
cellu 1
oceans</w> 1
uploaded</w> 1
gameplay</w> 1
maldives</w> 1
kimber 1
avoi 1
racer</w> 1
caine</w> 1
cavs</w> 1
hana</w> 1
liga</w> 1
raven</w> 1
intervention</w> 1
inauguration</w> 1
ooh</w> 1
attraction</w> 1
merchandise</w> 1
tunein</w> 1
liking</w> 1
juniors</w> 1
intended</w> 1
attacking</w> 1
aquarium</w> 1
iwd</w> 1
components</w> 1
suring</w> 1
centu 1
yogurt</w> 1
ðŁıĥ 1
showroom</w> 1
optical</w> 1
tyour 1
judge 1
yield</w> 1
anto 1
plc</w> 1
transparency</w> 1
recycled</w> 1
chief 1
arom 1
ambassadors</w> 1
planet 1
âĿĦï¸ı 1
omed</w> 1
vanessa</w> 1
court 1
margar 1
haley</w> 1
vr 1
regina</w> 1
pdates</w> 1
hispan 1
livestream</w> 1
âģ£</w> 1
yahoo</w> 1
galla 1
secured</w> 1
wir 1
beneath</w> 1
offl</w> 1
nil 1
amb</w> 1
yeg 1
outlet</w> 1
ute 1
peep</w> 1
lindsay</w> 1
bentley</w> 1
...!</w> 1
heel</w> 1
trilogy</w> 1
vos</w> 1
tyre</w> 1
therefore</w> 1
toronto 1
abi 1
simpli 1
jae 1
extensive</w> 1
elephants</w> 1
sor</w> 1
orientation</w> 1
impeach 1
replay</w> 1
constructed</w> 1
peterson</w> 1
pais 1
ported</w> 1
customs</w> 1
collap 1
adu 1
highlands</w> 1
salem</w> 1
shelby</w> 1
kovic</w> 1
strain</w> 1
rosie</w> 1
senators</w> 1
snaps</w> 1
bobb 1
suzuki</w> 1
blades</w> 1
kp</w> 1
lolo 1
generate</w> 1
sight 1
mae 1
structural</w> 1
predict</w> 1
jumped</w> 1
ahmad</w> 1
sung 1
justice 1
glam</w> 1
volvo</w> 1
jubilee</w> 1
detention</w> 1
losses</w> 1
puri 1
everytime</w> 1
Ð° 1
rao</w> 1
edge 1
limer 1
resemb 1
harold</w> 1
retri 1
sacrific 1
surprises</w> 1
amc</w> 1
srilanka</w> 1
barbie</w> 1
mens 1
finn</w> 1
ags</w> 1
ukrainian</w> 1
embrac 1
îĲ 1
flavors</w> 1
homer</w> 1
laure 1
outh 1
priced</w> 1
verde</w> 1
firm 1
ahs</w> 1
cub 1
trey</w> 1
paranor 1
profit 1
indv 1
whoa</w> 1
harsh</w> 1
alot</w> 1
critics</w> 1
hubby</w> 1
figur 1
gira 1
castro</w> 1
chanel</w> 1
input</w> 1
originals</w> 1
tenant</w> 1
yyyy</w> 1
turers</w> 1
lincoln 1
coon</w> 1
learn 1
chou 1
acare</w> 1
oles</w> 1
diner</w> 1
hyp 1
bizarre</w> 1
mcr</w> 1
letsgo 1
decorating</w> 1
ðŁĮİ</w> 1
alison</w> 1
arvin 1
fd 1
rehab</w> 1
mccarthy</w> 1
lottery</w> 1
dah 1
minneapolis</w> 1
eligible</w> 1
diagnosed</w> 1
emerald</w> 1
destinations</w> 1
sans</w> 1
ory 1
blazers</w> 1
nv</w> 1
bail</w> 1
digitalart</w> 1
noc 1
malta</w> 1
solar 1
pipes</w> 1
allegations</w> 1
nock</w> 1
pope 1
brid 1
premier 1
nx</w> 1
presentations</w> 1
efa</w> 1
bows</w> 1
valve</w> 1
opponent</w> 1
Įë 1
visual 1
ingle</w> 1
categor 1
eter</w> 1
pois 1
dani</w> 1
attract</w> 1
neutral</w> 1
thene 1
crashes</w> 1
freddie</w> 1
utili 1
cst</w> 1
awakening</w> 1
sloven 1
qualify</w> 1
proof 1
fairy 1
lev 1
freight</w> 1
enjoys</w> 1
cupcake</w> 1
flavour</w> 1
âķ 1
protective</w> 1
ðŁĳıðŁı»</w> 1
isu 1
admir 1
hmmm</w> 1
continuous</w> 1
aires</w> 1
raptors</w> 1
showcasing</w> 1
yuk 1
paste</w> 1
follower</w> 1
instructions</w> 1
spru 1
@__</w> 1
theo 1
debuts</w> 1
vette</w> 1
stow</w> 1
esof 1
ached</w> 1
sultan</w> 1
sandwich 1
somalia</w> 1
franco</w> 1
carne 1
fluffy</w> 1
alpine</w> 1
jasmine</w> 1
heated</w> 1
violin</w> 1
pless</w> 1
divorce</w> 1
performer</w> 1
phies</w> 1
portsm 1
dara</w> 1
kirby</w> 1
lop</w> 1
chilli</w> 1
forth 1
skype</w> 1
ðŁĩ®ðŁĩ¹</w> 1
celebrities</w> 1
edy 1
vee</w> 1
poison</w> 1
eyel 1
grabs</w> 1
ssic</w> 1
uno</w> 1
western 1
railroad</w> 1
amer 1
numerous</w> 1
sv</w> 1
fow 1
fist</w> 1
âĢĭ 1
requests</w> 1
martial</w> 1
emmy</w> 1
acceptance</w> 1
laura 1
à¸´</w> 1
erup 1
hyundai</w> 1
outlander</w> 1
utt 1
wrestle 1
espresso</w> 1
demanding</w> 1
gdp</w> 1
geography</w> 1
saskat 1
troll</w> 1
confeder 1
sues</w> 1
sem</w> 1
bets</w> 1
tful</w> 1
tosh</w> 1
teaches</w> 1
coloured</w> 1
galway</w> 1
macy</w> 1
disorders</w> 1
bbcra 1
atem 1
fender</w> 1
litter</w> 1
esh 1
providers</w> 1
renovation</w> 1
nominate</w> 1
psg</w> 1
nominations</w> 1
jenna</w> 1
sharp 1
someday</w> 1
zur 1
brains</w> 1
cheshire</w> 1
prey</w> 1
hugo</w> 1
Â¿</w> 1
token</w> 1
rv 1
carr</w> 1
tactical</w> 1
zelda</w> 1
kayla</w> 1
fernando</w> 1
photographers</w> 1
jour</w> 1
umbrella</w> 1
woody</w> 1
congressman</w> 1
dump</w> 1
levy</w> 1
juan 1
dazz 1
signals</w> 1
lain</w> 1
anu</w> 1
michel</w> 1
porch</w> 1
alden 1
siblings</w> 1
yale</w> 1
peel</w> 1
swick</w> 1
ggin</w> 1
llc</w> 1
kale 1
scon 1
ild</w> 1
patreon</w> 1
reel</w> 1
quin</w> 1
witt</w> 1
marty</w> 1
moody</w> 1
toni</w> 1
dery</w> 1
gators</w> 1
specifically</w> 1
ddin</w> 1
lyon</w> 1
trick 1
meadows</w> 1
pj</w> 1
borgh 1
vik</w> 1
tur</w> 1
bronx</w> 1
puff</w> 1
lantern</w> 1
ðŁ¤¦ 1
gently</w> 1
bestie</w> 1
fact 1
refused</w> 1
fasci 1
mpy</w> 1
ðŁĶµ</w> 1
crossover</w> 1
meadow</w> 1
indianapolis</w> 1
ducation</w> 1
sley 1
loom</w> 1
mixer</w> 1
newmusic</w> 1
filmmaker</w> 1
prosperity</w> 1
lim</w> 1
weekend 1
creamy</w> 1
neutr 1
luther</w> 1
hv 1
northern 1
two 1
hra</w> 1
catches</w> 1
appearances</w> 1
habit</w> 1
kittens</w> 1
nv 1
illac</w> 1
infan 1
regardless</w> 1
lizard</w> 1
dunk</w> 1
curtain</w> 1
acom 1
intu 1
vez</w> 1
emin 1
flats</w> 1
calendars</w> 1
empower</w> 1
ruined</w> 1
hungary</w> 1
vid 1
wex 1
ulum</w> 1
aberdeen</w> 1
osa</w> 1
kt 1
massi 1
seemed</w> 1
sden</w> 1
'?</w> 1
telephone</w> 1
defi 1
inspires</w> 1
meow</w> 1
zones</w> 1
blind 1
ply 1
tucson</w> 1
adventure 1
ged 1
oyster</w> 1
ðŁĳıðŁĳıðŁĳı</w> 1
output</w> 1
ttt</w> 1
metallic</w> 1
smash 1
ucla</w> 1
scots</w> 1
perfect 1
lucy 1
regularly</w> 1
spic 1
relative</w> 1
athers</w> 1
mise</w> 1
battling</w> 1
decides</w> 1
mata</w> 1
occupied</w> 1
randomly</w> 1
catsoftwitter</w> 1
gian 1
bally 1
alties</w> 1
allies</w> 1
immen 1
syrac 1
ðŁĴľðŁĴľ 1
llan 1
aur</w> 1
kut 1
lamar</w> 1
affects</w> 1
nra</w> 1
starwar 1
ðŁ¤ĺ</w> 1
scram 1
enchan 1
process 1
luxurious</w> 1
array</w> 1
sherlock</w> 1
compati 1
dorf</w> 1
stress 1
msu</w> 1
swith 1
sala</w> 1
sofinstagram</w> 1
foil</w> 1
understood</w> 1
quay</w> 1
rp 1
cade</w> 1
jaw</w> 1
enab 1
encoun 1
ðŁİī:</w> 1
dock 1
saturn</w> 1
mull 1
layout</w> 1
rarely</w> 1
happily</w> 1
fixture</w> 1
orph 1
overlooking</w> 1
herbs</w> 1
mitt 1
pillar</w> 1
nolan</w> 1
petty</w> 1
stry 1
ui 1
muk 1
ores</w> 1
overs</w> 1
áµ 1
recreation</w> 1
wesley</w> 1
rit</w> 1
kejriwal</w> 1
stocking</w> 1
gv</w> 1
subscribers</w> 1
moose</w> 1
mae</w> 1
bert 1
oppre 1
assignment</w> 1
uro 1
highlighting</w> 1
calvin</w> 1
weigh</w> 1
cambodia</w> 1
avon</w> 1
kem</w> 1
disabilities</w> 1
ready 1
chargers</w> 1
pads</w> 1
izing</w> 1
illian</w> 1
truste 1
colleges</w> 1
associates</w> 1
albany</w> 1
milton</w> 1
cron 1
bur</w> 1
hardly</w> 1
sights</w> 1
antiques</w> 1
echo 1
surprisingly</w> 1
haiti</w> 1
capt</w> 1
php</w> 1
opio 1
inequality</w> 1
equal 1
keny 1
schmid 1
autographs</w> 1
rent 1
quer 1
citrus</w> 1
challenged</w> 1
tec 1
epide 1
fest 1
zhou</w> 1
lime 1
citizenship</w> 1
crystal 1
convinced</w> 1
messenger</w> 1
copenhagen</w> 1
âĿĹï¸ı</w> 1
warran 1
developments</w> 1
ï¸ıâĥ£ 1
forex</w> 1
hiro 1
sneakers</w> 1
xide</w> 1
viva</w> 1
stereo</w> 1
batting</w> 1
ssel 1
host 1
bengal 1
criticism</w> 1
qc</w> 1
crun 1
attempted</w> 1
rye</w> 1
determination</w> 1
creations</w> 1
dread 1
labels</w> 1
posse 1
ancer</w> 1
johan 1
sister 1
partnerships</w> 1
lesbian</w> 1
kst</w> 1
guarantee</w> 1
baro 1
fixing</w> 1
mason 1
mous</w> 1
chemicals</w> 1
tless</w> 1
biodiversity</w> 1
paro 1
bharat</w> 1
acol 1
refuge</w> 1
ente 1
titi 1
dyssey</w> 1
responds</w> 1
lefto 1
iner 1
sevel 1
rahul</w> 1
oline</w> 1
frankfur 1
choreo 1
enjoyable</w> 1
cto</w> 1
struggles</w> 1
woodland</w> 1
heavyweight</w> 1
gens</w> 1
recep 1
accred 1
ðŁĺ¡</w> 1
transformed</w> 1
listen 1
atop</w> 1
nk</w> 1
surge</w> 1
bere 1
governor 1
prisoners</w> 1
claude</w> 1
till 1
mulator</w> 1
emotion</w> 1
waterloo</w> 1
start 1
ðŁĩº</w> 1
cleaned</w> 1
grandmother</w> 1
fearless</w> 1
african 1
astronomy</w> 1
ðŁıģ</w> 1
à¸Ļ 1
theworld</w> 1
suitable</w> 1
anthony 1
kand 1
tten</w> 1
meaningful</w> 1
disclo 1
jacobs</w> 1
Ã¸ 1
tomlinson</w> 1
ghetti</w> 1
typho 1
substan 1
asco</w> 1
tek 1
nagar</w> 1
mud 1
amon 1
vaccine</w> 1
fty</w> 1
flesh</w> 1
noel</w> 1
inflation</w> 1
portugue 1
glamour</w> 1
tram</w> 1
vre</w> 1
tequ 1
roundup</w> 1
wyn</w> 1
rejected</w> 1
mosaic</w> 1
sighting</w> 1
calf</w> 1
ota 1
composition</w> 1
gopro</w> 1
gonzale 1
eed</w> 1
bard</w> 1
tue</w> 1
effectively</w> 1
ween 1
alto</w> 1
ribs</w> 1
relate</w> 1
thirsty</w> 1
furious</w> 1
dim</w> 1
chard</w> 1
perfume</w> 1
sny 1
churchill</w> 1
kof 1
masterclass</w> 1
wave 1
ðŁĶµ 1
erin 1
owns</w> 1
tobe 1
skilled</w> 1
tem</w> 1
gof 1
eni</w> 1
tori</w> 1
crazy 1
lick</w> 1
resistant</w> 1
icial 1
agar</w> 1
!:</w> 1
gali 1
delaware</w> 1
blitz</w> 1
kohli</w> 1
puck</w> 1
availability</w> 1
himalay 1
influential</w> 1
crochet</w> 1
victori 1
reading 1
hobby</w> 1
viet 1
jas</w> 1
engra 1
skul 1
ðŁĩ²ðŁĩ 1
educate</w> 1
techno</w> 1
districts</w> 1
blues 1
sett</w> 1
seventh</w> 1
learns</w> 1
eeee</w> 1
apocalypse</w> 1
hangout</w> 1
cruel</w> 1
mutu 1
bruh</w> 1
helen 1
sheer</w> 1
ction 1
klein</w> 1
texans</w> 1
cereal</w> 1
shine 1
nered</w> 1
gras</w> 1
ambro 1
fella</w> 1
hindu 1
matthew 1
lima</w> 1
miranda</w> 1
jewel</w> 1
soho</w> 1
eurovision</w> 1
neighbours</w> 1
chandler</w> 1
besides</w> 1
ðŁ¥°</w> 1
astros</w> 1
thumbs</w> 1
renault</w> 1
rave</w> 1
hired</w> 1
ðŁĸ¤ 1
itary</w> 1
zor 1
blazer</w> 1
kine 1
eau</w> 1
katy 1
dccomics</w> 1
pec</w> 1
rodgers</w> 1
waterproof</w> 1
killers</w> 1
superint 1
preserv 1
asso</w> 1
brewers</w> 1
promotional</w> 1
scam 1
villages</w> 1
sketches</w> 1
juicy</w> 1
forlife</w> 1
audit</w> 1
solo 1
fundamental</w> 1
lene</w> 1
philippine</w> 1
tend 1
conservatives</w> 1
sponsorship</w> 1
ddle 1
aine</w> 1
htc</w> 1
osi</w> 1
hulk</w> 1
waf 1
à¸Ļ</w> 1
evaluation</w> 1
antine</w> 1
slee 1
robertson</w> 1
roosevel 1
agi</w> 1
sophistic 1
employers</w> 1
bubbles</w> 1
kowski</w> 1
interaction</w> 1
shu</w> 1
boule 1
ican 1
jare 1
hank</w> 1
legitim 1
knicks</w> 1
karma</w> 1
receiver</w> 1
perks</w> 1
uh 1
stair</w> 1
suni 1
laboratory</w> 1
graves</w> 1
vocals</w> 1
oot</w> 1
cture</w> 1
thrive</w> 1
tico</w> 1
ãĥ³ 1
bw 1
cartoons</w> 1
mcdonalds</w> 1
draw 1
yung</w> 1
pler</w> 1
lid</w> 1
ethical</w> 1
groove</w> 1
enta</w> 1
internationalwomensday</w> 1
patron</w> 1
worries</w> 1
ðŁİħ 1
ðŁĳĭ</w> 1
katherine</w> 1
diaz</w> 1
tori 1
bachchan</w> 1
trust 1
mineral</w> 1
icom 1
builders</w> 1
born 1
coloring</w> 1
latte</w> 1
case 1
revolution 1
trader</w> 1
oxid 1
chipot 1
instantly</w> 1
southern 1
sehun</w> 1
prob 1
hernandez</w> 1
lisbon</w> 1
huawe 1
pong</w> 1
mea</w> 1
rooney</w> 1
wheelchair</w> 1
keen 1
bett 1
corin 1
regulatory</w> 1
displac 1
karen 1
schem 1
sunsets</w> 1
whales</w> 1
reminis 1
hep 1
hide 1
marcel 1
pandora</w> 1
doyle</w> 1
thfc</w> 1
otto</w> 1
nokia</w> 1
transgender</w> 1
kov 1
hawaiian</w> 1
shave</w> 1
sovere 1
excer 1
nicki</w> 1
pug</w> 1
stor</w> 1
roth 1
weet</w> 1
legal 1
dignity</w> 1
pow</w> 1
homage</w> 1
ðŁĩ³ðŁĩ 1
sre 1
canon 1
lax 1
woah</w> 1
quartz</w> 1
Ã±a</w> 1
greeting</w> 1
flickr</w> 1
nairobi</w> 1
advocates</w> 1
anc</w> 1
vii</w> 1
eugene</w> 1
thra 1
cre</w> 1
elan 1
pension</w> 1
thletics</w> 1
toni 1
reagan</w> 1
xv</w> 1
store 1
bench 1
harlem</w> 1
toddler</w> 1
sentenced</w> 1
âĻ¥ï¸ı 1
globally</w> 1
cheaper</w> 1
uf 1
mam</w> 1
nico</w> 1
iku</w> 1
thou</w> 1
nist</w> 1
dami 1
thala</w> 1
rhodes</w> 1
sale 1
bowls</w> 1
âĪ 1
lasvegas</w> 1
sanctions</w> 1
admire</w> 1
matched</w> 1
unable</w> 1
traveler</w> 1
eleven</w> 1
strawberries</w> 1
âĢĶâĢĶâĢĶâĢĶ 1
studio 1
jacques</w> 1
ims</w> 1
valued</w> 1
sno</w> 1
cheesecake</w> 1
nxt</w> 1
eos</w> 1
sx</w> 1
fx 1
tonic</w> 1
hatch</w> 1
chicks</w> 1
grads</w> 1
handic 1
rory</w> 1
asp 1
ripped</w> 1
dentist</w> 1
nen 1
lufc</w> 1
âľĬ</w> 1
dige 1
hopkins</w> 1
sherman</w> 1
fda</w> 1
forall</w> 1
ashley 1
strand</w> 1
hy</w> 1
liquor</w> 1
buffet</w> 1
essence</w> 1
pharma</w> 1
suriya</w> 1
ðŁĴĻðŁĴĻ 1
festivals</w> 1
zan</w> 1
refresh 1
purple 1
uniforms</w> 1
kenneth</w> 1
=)</w> 1
asan</w> 1
helsin 1
transformers</w> 1
kali 1
personalized</w> 1
chalk</w> 1
bobby 1
âĮ 1
themes</w> 1
departure</w> 1
print 1
illustrations</w> 1
quiet 1
agrees</w> 1
griff 1
Ø³ 1
miti 1
together 1
convenience</w> 1
abar 1
carlo 1
turtles</w> 1
infosec</w> 1
somewhat</w> 1
arlington</w> 1
scholarships</w> 1
emirates</w> 1
mums</w> 1
stella</w> 1
autonom 1
feather</w> 1
gore</w> 1
nominees</w> 1
fragrance</w> 1
ÑĤ 1
wong</w> 1
theastern</w> 1
gre</w> 1
zilla</w> 1
isi</w> 1
bumper</w> 1
goo</w> 1
dozens</w> 1
abduc 1
âļªï¸ı</w> 1
oils</w> 1
donors</w> 1
silicon</w> 1
ipod</w> 1
fortnite</w> 1
ðŁĴ¨</w> 1
toro</w> 1
sparkling</w> 1
consciousness</w> 1
pala</w> 1
num 1
mounted</w> 1
ffins</w> 1
thieves</w> 1
teammate</w> 1
prab 1
omer</w> 1
tapes</w> 1
bod 1
mitsu 1
stew</w> 1
ere 1
pbs</w> 1
tusc 1
lowe</w> 1
rade</w> 1
parliamentary</w> 1
hm 1
edgar</w> 1
ðŁĳĩðŁĳĩ 1
toa 1
agh 1
honi</w> 1
slate</w> 1
geek 1
apt</w> 1
hardt</w> 1
tap 1
horizon 1
growth 1
makeover</w> 1
hil</w> 1
paperback</w> 1
idan</w> 1
rehabil 1
giu 1
possibilities</w> 1
lettu 1
franco 1
boss 1
acher</w> 1
doesnt</w> 1
moe</w> 1
taker</w> 1
hussain</w> 1
mlk</w> 1
dil</w> 1
thia</w> 1
hama</w> 1
realised</w> 1
ravens</w> 1
curriculum</w> 1
mith</w> 1
knight 1
tedx 1
rv</w> 1
isaiah</w> 1
cumbria</w> 1
birthdays</w> 1
fing</w> 1
prez</w> 1
mubarak</w> 1
exquisite</w> 1
clearance</w> 1
yen</w> 1
pari 1
evo 1
Ãº 1
modified</w> 1
applying</w> 1
implement</w> 1
discovering</w> 1
chapman</w> 1
indiegame</w> 1
disk</w> 1
crowdfunding</w> 1
machin 1
livel 1
styled</w> 1
âĿĮ</w> 1
making 1
rehearsals</w> 1
nutriti 1
subscription</w> 1
andro</w> 1
creators</w> 1
carries</w> 1
kylie</w> 1
camden</w> 1
apprentice</w> 1
taxpay 1
cca</w> 1
tuesdaythoughts</w> 1
pissed</w> 1
erman</w> 1
detec 1
freedom 1
meri 1
..!</w> 1
psalm</w> 1
sunlight</w> 1
perspec 1
beings</w> 1
bookstore</w> 1
rockstar</w> 1
functions</w> 1
pence</w> 1
faves</w> 1
zn</w> 1
obamacare</w> 1
spill</w> 1
coventry</w> 1
pigeon</w> 1
pivo 1
bait</w> 1
kolkata</w> 1
aval 1
donor</w> 1
wah</w> 1
privileg 1
traditions</w> 1
rajasthan</w> 1
teness</w> 1
portuguese</w> 1
ynes</w> 1
tackles</w> 1
defic 1
torn</w> 1
polling</w> 1
thorne</w> 1
ina 1
benedict</w> 1
barry 1
calories</w> 1
verdict</w> 1
savethe 1
norton</w> 1
office 1
mainstream</w> 1
improves</w> 1
fron</w> 1
responding</w> 1
realtor</w> 1
scottish 1
declar 1
rl 1
shiv 1
supplier</w> 1
resting</w> 1
sweets</w> 1
qui</w> 1
.âĢ¦</w> 1
whitney</w> 1
startup 1
thankyou 1
teacher 1
halls</w> 1
have 1
handmade 1
proving</w> 1
quartet</w> 1
rochester</w> 1
lian</w> 1
virtual 1
mendes</w> 1
oficial</w> 1
midlands</w> 1
xbox 1
measuring</w> 1
ovo</w> 1
accommodation</w> 1
brides</w> 1
collegiate</w> 1
intellectual</w> 1
incar 1
niag 1
ðŁį·</w> 1
sfw</w> 1
cocoa</w> 1
coats</w> 1
civilians</w> 1
presidency</w> 1
matrix</w> 1
sweetheart</w> 1
triathlon</w> 1
wagner</w> 1
radic 1
planner</w> 1
theo</w> 1
execution</w> 1
kum 1
thewalkingdead</w> 1
scar</w> 1
rotation</w> 1
blogging</w> 1
bomb 1
reson 1
bbles</w> 1
stare</w> 1
assisted</w> 1
edo</w> 1
branded</w> 1
warnings</w> 1
thorpe</w> 1
acknowle 1
satisfied</w> 1
shores</w> 1
rid 1
dora</w> 1
physically</w> 1
bigh 1
approves</w> 1
hah 1
rical</w> 1
versatile</w> 1
pretend</w> 1
lum 1
abhi 1
yee 1
spit 1
ãĢĮ</w> 1
djs</w> 1
ashtra</w> 1
jt</w> 1
venues</w> 1
grammys</w> 1
cyclo 1
tracker</w> 1
overwatch</w> 1
replica</w> 1
elyn</w> 1
nrl</w> 1
lindsey</w> 1
homo 1
balloons</w> 1
kitchen 1
sis 1
amos</w> 1
endeav 1
ðŁĴ»</w> 1
arec 1
thug</w> 1
hooked</w> 1
hrc</w> 1
newyork 1
burgh 1
americas</w> 1
patricia</w> 1
ugu</w> 1
apathy</w> 1
hast 1
psychi 1
cork 1
petrol</w> 1
ðŁİ¬</w> 1
aku 1
popping</w> 1
psychological</w> 1
aux 1
gma</w> 1
cadillac</w> 1
waste 1
authent 1
bristol 1
name 1
queer</w> 1
tober 1
jerry 1
comin</w> 1
chant 1
privileged</w> 1
opar 1
loser</w> 1
text 1
marker</w> 1
stries</w> 1
equally</w> 1
aki 1
christmas 1
gareth</w> 1
blew</w> 1
emma 1
imagin 1
seals</w> 1
cheat</w> 1
conditioning</w> 1
jana</w> 1
rens</w> 1
daries</w> 1
oasis</w> 1
discounts</w> 1
council 1
ika</w> 1
shirley</w> 1
voucher</w> 1
alps</w> 1
wx 1
qr</w> 1
drift</w> 1
attempting</w> 1
utc</w> 1
Øª 1
gonzalez</w> 1
mf 1
joker</w> 1
parallel</w> 1
pare 1
aspects</w> 1
procedu 1
np 1
ama 1
raleigh</w> 1
brighten</w> 1
guire</w> 1
radiation</w> 1
crescent</w> 1
hob 1
ille 1
strand 1
vore</w> 1
nard</w> 1
chest 1
diwali</w> 1
avatar</w> 1
alder 1
dling</w> 1
pathetic</w> 1
ðŁĴĺ 1
spirit 1
jorge</w> 1
filmmaking</w> 1
ðŁĻıðŁĻı 1
challenger</w> 1
bj</w> 1
downtown 1
html</w> 1
adequ 1
twisted</w> 1
inely</w> 1
('</w> 1
wraps</w> 1
operational</w> 1
yne</w> 1
nus</w> 1
magnet</w> 1
marketplace</w> 1
healthier</w> 1
snapshot</w> 1
damon</w> 1
interven 1
federer</w> 1
owls</w> 1
biscuits</w> 1
jp 1
rodeo</w> 1
blueberry</w> 1
lection</w> 1
frontier</w> 1
summers</w> 1
reyes</w> 1
pedestrian</w> 1
gol</w> 1
caffe 1
refurbi 1
boulder</w> 1
meghan</w> 1
specialty</w> 1
lass</w> 1
ei</w> 1
suspects</w> 1
approx</w> 1
rrr</w> 1
rath 1
stim 1
crushed</w> 1
hed 1
whun 1
loaf</w> 1
crore</w> 1
rivera</w> 1
genetics</w> 1
sock</w> 1
wasted</w> 1
nypd</w> 1
answering</w> 1
dove</w> 1
bella 1
olin</w> 1
dun</w> 1
fiji</w> 1
pretty 1
sparkle</w> 1
yun</w> 1
jd 1
europa</w> 1
lifts</w> 1
amber 1
mur</w> 1
tek</w> 1
boyd</w> 1
royalty</w> 1
indo</w> 1
rib</w> 1
gotham</w> 1
tiest</w> 1
installing</w> 1
kemp 1
thephoto 1
cosmic</w> 1
)))</w> 1
wholesale</w> 1
loyment</w> 1
easy 1
suing</w> 1
settled</w> 1
afp</w> 1
prover 1
supportive</w> 1
rees</w> 1
neath</w> 1
deliber 1
cÃ©</w> 1
welcome 1
picoftheday</w> 1
newborn</w> 1
patty</w> 1
suns</w> 1
siest</w> 1
flint</w> 1
differently</w> 1
spoilers</w> 1
trooper</w> 1
gins</w> 1
cory</w> 1
lookout</w> 1
equipped</w> 1
tape 1
toby</w> 1
researcher</w> 1
ush</w> 1
keyes</w> 1
alma</w> 1
induction</w> 1
kw</w> 1
khar 1
slick</w> 1
bride 1
eur 1
craving</w> 1
bookings</w> 1
ches 1
trunk</w> 1
vernon</w> 1
spher 1
crystals</w> 1
relatively</w> 1
pompe 1
unions</w> 1
valley 1
para 1
want 1
okc</w> 1
deaf</w> 1
sergio</w> 1
lennon</w> 1
shay</w> 1
cra</w> 1
vat</w> 1
hee 1
twe 1
liquid 1
poly</w> 1
ðŁİģ 1
bent</w> 1
bearing</w> 1
motorsport</w> 1
barbe 1
testi 1
hani</w> 1
financing</w> 1
astronaut</w> 1
watercolour</w> 1
rish 1
comiccon</w> 1
gart 1
wrong 1
bern</w> 1
itan</w> 1
stepped</w> 1
filters</w> 1
clow 1
mex</w> 1
demons</w> 1
allo</w> 1
expanded</w> 1
command 1
eters</w> 1
goats</w> 1
siri</w> 1
yr 1
pottery</w> 1
marion</w> 1
ile 1
elan</w> 1
santo</w> 1
persona</w> 1
duke 1
homeless 1
lighted</w> 1
wheeler</w> 1
changer</w> 1
cabbage</w> 1
surreal</w> 1
hamburg</w> 1
smashed</w> 1
stran 1
knot</w> 1
iart 1
obi</w> 1
bedro 1
dial 1
thick 1
bingo</w> 1
fus</w> 1
vacuum</w> 1
conve 1
ative 1
accuracy</w> 1
account 1
refer 1
riz 1
spiderman</w> 1
bana</w> 1
rite</w> 1
ub 1
abs 1
medical 1
link 1
siem 1
>>>></w> 1
betra 1
glowing</w> 1
reactions</w> 1
puppet</w> 1
spaghetti</w> 1
angs</w> 1
remedi 1
prayfor 1
royce</w> 1
charlotte 1
£ï¸ı</w> 1
ghet 1
affecting</w> 1
rode</w> 1
socialist</w> 1
moses</w> 1
azi</w> 1
oit 1
reporters</w> 1
cdt</w> 1
aping</w> 1
snat 1
minimal</w> 1
waist</w> 1
siege</w> 1
>>>> 1
rig 1
schmidt</w> 1
hare</w> 1
eca</w> 1
thorn</w> 1
hemp</w> 1
esthe 1
clyde</w> 1
tha 1
donut</w> 1
mohamed</w> 1
lingerie</w> 1
legg 1
carpenter</w> 1
performers</w> 1
dea</w> 1
imagined</w> 1
curse</w> 1
lash</w> 1
ctr</w> 1
agua</w> 1
roar</w> 1
gri</w> 1
role 1
jfk</w> 1
resurrec 1
roosevelt</w> 1
marilyn</w> 1
smalle 1
willis</w> 1
waited</w> 1
charities</w> 1
theres</w> 1
lik</w> 1
original 1
cari 1
cough</w> 1
cruci 1
lagun 1
contrast</w> 1
kou 1
armour</w> 1
removing</w> 1
tent 1
mazda</w> 1
brighter</w> 1
thief</w> 1
corner 1
tequila</w> 1
buzzing</w> 1
albi 1
pam</w> 1
azure</w> 1
discoun 1
pixelart</w> 1
possibility</w> 1
hamont</w> 1
trades</w> 1
buda 1
hive</w> 1
versy</w> 1
finch</w> 1
transpa 1
emi</w> 1
terrifying</w> 1
inqui 1
gba</w> 1
substitu 1
collecti 1
placing</w> 1
cindy</w> 1
kann 1
patho 1
diamond 1
mourinho</w> 1
guinea</w> 1
anthropo 1
airs</w> 1
pumps</w> 1
ìļ 1
paso</w> 1
curling</w> 1
anita</w> 1
residency</w> 1
newh 1
joon</w> 1
cigarette</w> 1
queue</w> 1
extrac 1
games 1
splen 1
express 1
publicly</w> 1
bonnie</w> 1
tribune</w> 1
baek 1
reasonable</w> 1
cor</w> 1
timothy</w> 1
sheeran</w> 1
Ä± 1
fdn</w> 1
sutton</w> 1
concentration</w> 1
caravan</w> 1
xavier</w> 1
alger 1
cylin 1
frederick</w> 1
nerve</w> 1
peak 1
lettuce</w> 1
jail 1
pregame</w> 1
kavan 1
upgraded</w> 1
ecology</w> 1
squadron</w> 1
grapes</w> 1
goog 1
pastry</w> 1
ðŁĹ£</w> 1
ãĥ¼ãĥ 1
milano</w> 1
awaz</w> 1
presenter</w> 1
ðŁĮ¿</w> 1
herd</w> 1
kings 1
template</w> 1
flour</w> 1
hv</w> 1
kley</w> 1
iya</w> 1
spec</w> 1
ater 1
frankfurt</w> 1
coch 1
texting</w> 1
deli</w> 1
communist</w> 1
regiment</w> 1
eleanor</w> 1
anticipated</w> 1
ðŁĳĮðŁı»</w> 1
thephotohour</w> 1
rano</w> 1
surviving</w> 1
simulation</w> 1
dawson</w> 1
arin</w> 1
aqua</w> 1
mor</w> 1
âĢ¦.</w> 1
cino</w> 1
iraqi</w> 1
shaz 1
dundee</w> 1
wes 1
drau 1
hannah 1
snews</w> 1
occupation</w> 1
steen</w> 1
xm</w> 1
angles</w> 1
settings</w> 1
guru 1
knox 1
orca</w> 1
shaping</w> 1
went 1
drilling</w> 1
zzie</w> 1
bri</w> 1
kissing</w> 1
find 1
maine 1
âŃĲï¸ıâŃĲï¸ı 1
ðŁĮį</w> 1
larry 1
busted</w> 1
tavern</w> 1
actively</w> 1
-"</w> 1
replacing</w> 1
nod</w> 1
unlock</w> 1
." 1
âŀ¤</w> 1
affiliate</w> 1
tow</w> 1
ln</w> 1
happynewyear</w> 1
dif 1
jm</w> 1
greenwich</w> 1
controversy</w> 1
dawg</w> 1
condol 1
savannah</w> 1
compensation</w> 1
touchdown</w> 1
teo</w> 1
[...]
